{
  "version": "1.0",
  "truncation": null,
  "padding": null,
  "added_tokens": [
    {
      "id": 0,
      "content": "[UNK]",
      "single_word": false,
      "lstrip": false,
      "rstrip": false,
      "normalized": false,
      "special": true
    },
    {
      "id": 1,
      "content": "[CLS]",
      "single_word": false,
      "lstrip": false,
      "rstrip": false,
      "normalized": false,
      "special": true
    },
    {
      "id": 2,
      "content": "[SEP]",
      "single_word": false,
      "lstrip": false,
      "rstrip": false,
      "normalized": false,
      "special": true
    },
    {
      "id": 3,
      "content": "[PAD]",
      "single_word": false,
      "lstrip": false,
      "rstrip": false,
      "normalized": false,
      "special": true
    },
    {
      "id": 4,
      "content": "[MASK]",
      "single_word": false,
      "lstrip": false,
      "rstrip": false,
      "normalized": false,
      "special": true
    }
  ],
  "normalizer": null,
  "pre_tokenizer": {
    "type": "Whitespace"
  },
  "post_processor": null,
  "decoder": null,
  "model": {
    "type": "BPE",
    "dropout": null,
    "unk_token": "[UNK]",
    "continuing_subword_prefix": null,
    "end_of_word_suffix": null,
    "fuse_unk": false,
    "byte_fallback": false,
    "vocab": {
      "[UNK]": 0,
      "[CLS]": 1,
      "[SEP]": 2,
      "[PAD]": 3,
      "[MASK]": 4,
      "!": 5,
      "\"": 6,
      "#": 7,
      "$": 8,
      "%": 9,
      "'": 10,
      "(": 11,
      ")": 12,
      "*": 13,
      ",": 14,
      "-": 15,
      ".": 16,
      "/": 17,
      "0": 18,
      "1": 19,
      "2": 20,
      "3": 21,
      "4": 22,
      "5": 23,
      "6": 24,
      "7": 25,
      "8": 26,
      "9": 27,
      ":": 28,
      ";": 29,
      "?": 30,
      "A": 31,
      "B": 32,
      "C": 33,
      "D": 34,
      "E": 35,
      "F": 36,
      "G": 37,
      "H": 38,
      "I": 39,
      "J": 40,
      "K": 41,
      "L": 42,
      "M": 43,
      "N": 44,
      "O": 45,
      "P": 46,
      "Q": 47,
      "R": 48,
      "S": 49,
      "T": 50,
      "U": 51,
      "V": 52,
      "W": 53,
      "X": 54,
      "Y": 55,
      "Z": 56,
      "[": 57,
      "]": 58,
      "_": 59,
      "a": 60,
      "b": 61,
      "c": 62,
      "d": 63,
      "e": 64,
      "f": 65,
      "g": 66,
      "h": 67,
      "i": 68,
      "j": 69,
      "k": 70,
      "l": 71,
      "m": 72,
      "n": 73,
      "o": 74,
      "p": 75,
      "q": 76,
      "r": 77,
      "s": 78,
      "t": 79,
      "u": 80,
      "v": 81,
      "w": 82,
      "x": 83,
      "y": 84,
      "z": 85,
      "ù": 86,
      "—": 87,
      "‘": 88,
      "’": 89,
      "“": 90,
      "”": 91,
      "he": 92,
      "the": 93,
      "in": 94,
      "ou": 95,
      "an": 96,
      "it": 97,
      "er": 98,
      "at": 99,
      "on": 100,
      "re": 101,
      "ing": 102,
      "to": 103,
      "th": 104,
      "ed": 105,
      "and": 106,
      "en": 107,
      "as": 108,
      "or": 109,
      "ll": 110,
      "ce": 111,
      "id": 112,
      "of": 113,
      "is": 114,
      "ar": 115,
      "le": 116,
      "se": 117,
      "li": 118,
      "sa": 119,
      "ow": 120,
      "she": 121,
      "you": 122,
      "be": 123,
      "me": 124,
      "ad": 125,
      "said": 126,
      "st": 127,
      "ut": 128,
      "ly": 129,
      ",”": 130,
      "Ali": 131,
      "Alice": 132,
      "ch": 133,
      "was": 134,
      "ver": 135,
      "ld": 136,
      "ot": 137,
      "her": 138,
      "all": 139,
      "gh": 140,
      "es": 141,
      "ro": 142,
      "that": 143,
      "ent": 144,
      "so": 145,
      "wh": 146,
      "!”": 147,
      "ri": 148,
      "wit": 149,
      "out": 150,
      "ve": 151,
      "with": 152,
      "al": 153,
      "ght": 154,
      "nd": 155,
      "oo": 156,
      "ur": 157,
      "ion": 158,
      "ter": 159,
      "for": 160,
      "ab": 161,
      "ct": 162,
      "ay": 163,
      "ould": 164,
      "ke": 165,
      "ge": 166,
      "tle": 167,
      "The": 168,
      "sh": 169,
      "up": 170,
      "one": 171,
      "ne": 172,
      "not": 173,
      ".”": 174,
      "had": 175,
      "ir": 176,
      "but": 177,
      "ag": 178,
      "very": 179,
      "ck": 180,
      "ther": 181,
      "do": 182,
      "thing": 183,
      "ti": 184,
      "ook": 185,
      "ain": 186,
      "co": 187,
      "this": 188,
      "?”": 189,
      "ha": 190,
      "ue": 191,
      "now": 192,
      "ry": 193,
      "fe": 194,
      "are": 195,
      "own": 196,
      "wor": 197,
      "lit": 198,
      "if": 199,
      "ss": 200,
      "no": 201,
      "they": 202,
      "im": 203,
      "pe": 204,
      "ound": 205,
      "mo": 206,
      "mu": 207,
      "little": 208,
      "his": 209,
      "sel": 210,
      "ber": 211,
      "Wh": 212,
      "ill": 213,
      "su": 214,
      "self": 215,
      "ra": 216,
      "ect": 217,
      "de": 218,
      "any": 219,
      "po": 220,
      "ard": 221,
      "te": 222,
      "un": 223,
      "whe": 224,
      "see": 225,
      "look": 226,
      "beg": 227,
      "way": 228,
      "ouse": 229,
      "what": 230,
      "down": 231,
      "ite": 232,
      "ink": 233,
      "about": 234,
      "wer": 235,
      "we": 236,
      "our": 237,
      "ought": 238,
      "know": 239,
      "per": 240,
      "us": 241,
      "ation": 242,
      "enber": 243,
      "utenber": 244,
      "utenberg": 245,
      "ca": 246,
      "again": 247,
      "go": 248,
      "ject": 249,
      "other": 250,
      "them": 251,
      "like": 252,
      "could": 253,
      "went": 254,
      "would": 255,
      "work": 256,
      "am": 257,
      "che": 258,
      "Pro": 259,
      "con": 260,
      "fo": 261,
      "off": 262,
      "were": 263,
      "Gutenberg": 264,
      "ice": 265,
      "qu": 266,
      "some": 267,
      "Project": 268,
      "by": 269,
      "ex": 270,
      "ind": 271,
      "herself": 272,
      "have": 273,
      "ic": 274,
      "your": 275,
      "pl": 276,
      "thought": 277,
      "ph": 278,
      "ong": 279,
      "time": 280,
      "ment": 281,
      "ree": 282,
      "can": 283,
      "Que": 284,
      "Queen": 285,
      "did": 286,
      "et": 287,
      "lo": 288,
      "right": 289,
      "then": 290,
      "get": 291,
      "bit": 292,
      "don": 293,
      "gr": 294,
      "atter": 295,
      "say": 296,
      "ist": 297,
      "whi": 298,
      "when": 299,
      "ting": 300,
      "who": 301,
      "And": 302,
      "It": 303,
      "You": 304,
      "head": 305,
      "into": 306,
      "fu": 307,
      "ta": 308,
      "there": 309,
      "reat": 310,
      "ple": 311,
      "its": 312,
      "ast": 313,
      "ju": 314,
      "si": 315,
      "Tur": 316,
      "bo": 317,
      "ous": 318,
      "ers": 319,
      "ate": 320,
      "think": 321,
      "King": 322,
      "my": 323,
      "ark": 324,
      "pp": 325,
      "ant": 326,
      "vo": 327,
      "too": 328,
      "rom": 329,
      "Turtle": 330,
      "Mo": 331,
      "ma": 332,
      "ried": 333,
      "began": 334,
      "ep": 335,
      "tm": 336,
      "ort": 337,
      "ide": 338,
      "must": 339,
      "Mock": 340,
      "how": 341,
      "ling": 342,
      "Cat": 343,
      "Gry": 344,
      "Hatter": 345,
      "af": 346,
      "der": 347,
      "king": 348,
      "ure": 349,
      "use": 350,
      "much": 351,
      "quite": 352,
      "phon": 353,
      "Gryphon": 354,
      "mouse": 355,
      "que": 356,
      "won": 357,
      "ish": 358,
      "ac": 359,
      "ever": 360,
      "got": 361,
      "la": 362,
      "ning": 363,
      "read": 364,
      "end": 365,
      "abbit": 366,
      "lar": 367,
      "mark": 368,
      "tw": 369,
      "their": 370,
      "from": 371,
      "ive": 372,
      "pi": 373,
      "irst": 374,
      "voice": 375,
      "cour": 376,
      "ho": 377,
      "only": 378,
      "more": 379,
      "pro": 380,
      "tur": 381,
      "ough": 382,
      "art": 383,
      "com": 384,
      "him": 385,
      "ight": 386,
      "—”": 387,
      "which": 388,
      "Rabbit": 389,
      "led": 390,
      "here": 391,
      "never": 392,
      "just": 393,
      "ack": 394,
      "ance": 395,
      "fore": 396,
      "Du": 397,
      "med": 398,
      "able": 399,
      "such": 400,
      "looked": 401,
      "first": 402,
      "mad": 403,
      "ven": 404,
      "cu": 405,
      "min": 406,
      "py": 407,
      "round": 408,
      "arch": 409,
      "What": 410,
      "How": 411,
      "day": 412,
      "over": 413,
      "pt": 414,
      "tone": 415,
      "should": 416,
      "came": 417,
      "chess": 418,
      "Duchess": 419,
      "ked": 420,
      "long": 421,
      "erp": 422,
      "Dor": 423,
      "She": 424,
      "ace": 425,
      "put": 426,
      "hed": 427,
      "before": 428,
      "well": 429,
      "Dormouse": 430,
      "back": 431,
      "great": 432,
      "lt": 433,
      "man": 434,
      "und": 435,
      "rep": 436,
      "ence": 437,
      "after": 438,
      "cat": 439,
      "ey": 440,
      "low": 441,
      "ang": 442,
      "been": 443,
      "But": 444,
      "hand": 445,
      "ms": 446,
      "pa": 447,
      "ru": 448,
      "ood": 449,
      "We": 450,
      "ave": 451,
      "il": 452,
      "last": 453,
      "will": 454,
      "There": 455,
      "ER": 456,
      "Oh": 457,
      "Th": 458,
      "ded": 459,
      "dist": 460,
      "ire": 461,
      "ron": 462,
      "come": 463,
      "copy": 464,
      "full": 465,
      "If": 466,
      "March": 467,
      "ds": 468,
      "without": 469,
      "large": 470,
      "two": 471,
      "So": 472,
      "el": 473,
      "ele": 474,
      "found": 475,
      "door": 476,
      "things": 477,
      "tell": 478,
      "works": 479,
      "turn": 480,
      "under": 481,
      "pr": 482,
      "spe": 483,
      "wr": 484,
      "xt": 485,
      "ited": 486,
      "ase": 487,
      "set": 488,
      "looking": 489,
      "minut": 490,
      "Do": 491,
      "Hare": 492,
      "gl": 493,
      "jur": 494,
      "tr": 495,
      "tain": 496,
      "try": 497,
      "ates": 498,
      "once": 499,
      "ally": 500,
      "near": 501,
      "moment": 502,
      "dear": 503,
      "begin": 504,
      "CH": 505,
      "Mouse": 506,
      "ap": 507,
      "mber": 508,
      "tal": 509,
      "ves": 510,
      "heard": 511,
      "ine": 512,
      "ense": 513,
      "lied": 514,
      "ess": 515,
      "nothing": 516,
      "grow": 517,
      "make": 518,
      "made": 519,
      "elect": 520,
      "He": 521,
      "dy": 522,
      "est": 523,
      "every": 524,
      "even": 525,
      "mb": 526,
      "may": 527,
      "pre": 528,
      "row": 529,
      "than": 530,
      "ribut": 531,
      "upon": 532,
      "illar": 533,
      "erpillar": 534,
      "replied": 535,
      "eyes": 536,
      "That": 537,
      "ronic": 538,
      "electronic": 539,
      "ame": 540,
      "away": 541,
      "ear": 542,
      "hur": 543,
      "might": 544,
      "old": 545,
      "ving": 546,
      "ved": 547,
      "wa": 548,
      "remark": 549,
      "three": 550,
      "ened": 551,
      "ass": 552,
      "next": 553,
      "Caterpillar": 554,
      "wonder": 555,
      "No": 556,
      "has": 557,
      "om": 558,
      "ted": 559,
      "iting": 560,
      "ated": 561,
      "mean": 562,
      "agree": 563,
      "Why": 564,
      "seemed": 565,
      "going": 566,
      "course": 567,
      "Found": 568,
      "cl": 569,
      "cut": 570,
      "den": 571,
      "good": 572,
      "ild": 573,
      "ten": 574,
      "ity": 575,
      "less": 576,
      "soon": 577,
      "jury": 578,
      "AP": 579,
      "air": 580,
      "ble": 581,
      "dis": 582,
      "find": 583,
      "gard": 584,
      "ig": 585,
      "ious": 586,
      "op": 587,
      "ran": 588,
      "side": 589,
      "tre": 590,
      "ons": 591,
      "llow": 592,
      "ise": 593,
      "ary": 594,
      "ions": 595,
      "form": 596,
      "shall": 597,
      "does": 598,
      "rather": 599,
      "poor": 600,
      "getting": 601,
      "body": 602,
      "curi": 603,
      "distribut": 604,
      "Co": 605,
      "TER": 606,
      "gu": 607,
      "same": 608,
      "new": 609,
      "happ": 610,
      "where": 611,
      "used": 612,
      "took": 613,
      "ures": 614,
      "CHAP": 615,
      "Foundation": 616,
      "garden": 617,
      "CHAPTER": 618,
      "Of": 619,
      "cer": 620,
      "ps": 621,
      "sm": 622,
      "sort": 623,
      "added": 624,
      "alf": 625,
      "felt": 626,
      "imp": 627,
      "ations": 628,
      "quest": 629,
      "Well": 630,
      "This": 631,
      "_I": 632,
      "clo": 633,
      "fan": 634,
      "half": 635,
      "table": 636,
      "wal": 637,
      "wish": 638,
      "yet": 639,
      "another": 640,
      "les": 641,
      "let": 642,
      "child": 643,
      "room": 644,
      "ool": 645,
      "till": 646,
      "most": 647,
      "White": 648,
      "ak": 649,
      "act": 650,
      "ci": 651,
      "call": 652,
      "dre": 653,
      "gs": 654,
      "pu": 655,
      "part": 656,
      "sent": 657,
      "sup": 658,
      "ul": 659,
      "vid": 660,
      "cess": 661,
      "arm": 662,
      "terms": 663,
      "Then": 664,
      "They": 665,
      "fee": 666,
      "words": 667,
      "cause": 668,
      "exe": 669,
      "play": 670,
      "while": 671,
      "law": 672,
      "minute": 673,
      "Come": 674,
      "In": 675,
      "cro": 676,
      "cried": 677,
      "ea": 678,
      "eat": 679,
      "face": 680,
      "house": 681,
      "ily": 682,
      "kes": 683,
      "mid": 684,
      "par": 685,
      "sit": 686,
      "spo": 687,
      "vent": 688,
      "ww": 689,
      "’”": 690,
      "hear": 691,
      "inter": 692,
      "reme": 693,
      "sure": 694,
      "anything": 695,
      "curious": 696,
      "remember": 697,
      "EN": 698,
      "ah": 699,
      "creat": 700,
      "dif": 701,
      "fin": 702,
      "hi": 703,
      "hard": 704,
      "sto": 705,
      "tried": 706,
      "wat": 707,
      "ze": 708,
      "“—": 709,
      "repe": 710,
      "iss": 711,
      "leep": 712,
      "bet": 713,
      "being": 714,
      "ently": 715,
      "feet": 716,
      "tea": 717,
      "ful": 718,
      "copyright": 719,
      "fully": 720,
      "execut": 721,
      "Book": 722,
      "Ma": 723,
      "St": 724,
      "TH": 725,
      "Un": 726,
      "dden": 727,
      "eBook": 728,
      "mor": 729,
      "oup": 730,
      "red": 731,
      "thr": 732,
      "enough": 733,
      "lear": 734,
      "lic": 735,
      "follow": 736,
      "something": 737,
      "take": 738,
      "sil": 739,
      "court": 740,
      "turned": 741,
      "appe": 742,
      "iously": 743,
      "certain": 744,
      "As": 745,
      "Bill": 746,
      "age": 747,
      "ob": 748,
      "oot": 749,
      "sat": 750,
      "ans": 751,
      "anx": 752,
      "ren": 753,
      "asked": 754,
      "ished": 755,
      "lie": 756,
      "haps": 757,
      "iful": 758,
      "Who": 759,
      "sudden": 760,
      "place": 761,
      "agreement": 762,
      "small": 763,
      "question": 764,
      "spoke": 765,
      "diff": 766,
      "**": 767,
      ".)": 768,
      "II": 769,
      "cou": 770,
      "ople": 771,
      "ring": 772,
      "sid": 773,
      "sur": 774,
      "tri": 775,
      "inde": 776,
      "oud": 777,
      "ener": 778,
      "lef": 779,
      "nee": 780,
      "tily": 781,
      "ared": 782,
      "people": 783,
      "pose": 784,
      "pers": 785,
      "talking": 786,
      "hastily": 787,
      "clu": 788,
      "doesn": 789,
      "high": 790,
      "through": 791,
      ":—": 792,
      "Ar": 793,
      "Din": 794,
      "Her": 795,
      "Lit": 796,
      "OR": 797,
      "cur": 798,
      "du": 799,
      "done": 800,
      "dance": 801,
      "fl": 802,
      "gave": 803,
      "ile": 804,
      "jo": 805,
      "knew": 806,
      "list": 807,
      "sw": 808,
      "tin": 809,
      "want": 810,
      "these": 811,
      "ange": 812,
      "seen": 813,
      "because": 814,
      "cho": 815,
      "aby": 816,
      "keep": 817,
      "fect": 818,
      "ssed": 819,
      "raw": 820,
      "raph": 821,
      "ways": 822,
      "foot": 823,
      "qui": 824,
      "saying": 825,
      "pleas": 826,
      "please": 827,
      "both": 828,
      "pped": 829,
      "idea": 830,
      "arts": 831,
      "beginning": 832,
      "_I_": 833,
      "called": 834,
      "States": 835,
      "United": 836,
      "indeed": 837,
      "AN": 838,
      "For": 839,
      "IN": 840,
      "LI": 841,
      "RE": 842,
      "Will": 843,
      "_very": 844,
      "bot": 845,
      "bus": 846,
      "baby": 847,
      "far": 848,
      "mou": 849,
      "ner": 850,
      "ness": 851,
      "sing": 852,
      "zz": 853,
      "hel": 854,
      "itself": 855,
      "rest": 856,
      "toge": 857,
      "sea": 858,
      "saw": 859,
      "ade": 860,
      "stand": 861,
      "change": 862,
      "tem": 863,
      "perhaps": 864,
      "conf": 865,
      "expl": 866,
      "didn": 867,
      "pie": 868,
      "hold": 869,
      "comp": 870,
      "However": 871,
      "irect": 872,
      "speak": 873,
      "trying": 874,
      "talk": 875,
      "happen": 876,
      "close": 877,
      "puzz": 878,
      "better": 879,
      "answer": 880,
      "anxiously": 881,
      "left": 882,
      "Dinah": 883,
      "_very_": 884,
      "mouth": 885,
      "together": 886,
      "Soup": 887,
      "book": 888,
      "cook": 889,
      "direct": 890,
      "ek": 891,
      "fall": 892,
      "gone": 893,
      "game": 894,
      "hind": 895,
      "ither": 896,
      "mp": 897,
      "many": 898,
      "name": 899,
      "rup": 900,
      "run": 901,
      "sl": 902,
      "inclu": 903,
      "erary": 904,
      "reas": 905,
      "cept": 906,
      "ister": 907,
      "life": 908,
      "behind": 909,
      "ster": 910,
      "utiful": 911,
      "ching": 912,
      "chive": 913,
      "why": 914,
      "whis": 915,
      "fort": 916,
      "kept": 917,
      "shri": 918,
      "agraph": 919,
      "whole": 920,
      "size": 921,
      "ortant": 922,
      "queer": 923,
      "turning": 924,
      "cats": 925,
      "Dodo": 926,
      "trade": 927,
      "hurried": 928,
      "important": 929,
      "paragraph": 930,
      "certainly": 931,
      "Archive": 932,
      "Literary": 933,
      "help": 934,
      "trademark": 935,
      "),": 936,
      "An": 937,
      "Foot": 938,
      "Now": 939,
      "Yes": 940,
      "_that": 941,
      "bb": 942,
      "bir": 943,
      "cla": 944,
      "di": 945,
      "ely": 946,
      "free": 947,
      "glo": 948,
      "give": 949,
      "gener": 950,
      "jest": 951,
      "mind": 952,
      "miss": 953,
      "sound": 954,
      "ask": 955,
      "bea": 956,
      "best": 957,
      "still": 958,
      "lying": 959,
      "chang": 960,
      "vers": 961,
      "always": 962,
      "geon": 963,
      "sho": 964,
      "shar": 965,
      "butter": 966,
      "ager": 967,
      "timid": 968,
      "raid": 969,
      "ection": 970,
      "deal": 971,
      "ards": 972,
      "wouldn": 973,
      "among": 974,
      "ched": 975,
      "ches": 976,
      "donations": 977,
      "tail": 978,
      "antly": 979,
      "makes": 980,
      "afraid": 981,
      "access": 982,
      "medi": 983,
      "erpent": 984,
      "hedge": 985,
      "hands": 986,
      "else": 987,
      "everything": 988,
      "hurry": 989,
      "suppose": 990,
      "laws": 991,
      "interrup": 992,
      "finished": 993,
      "Majest": 994,
      "suddenly": 995,
      "surpr": 996,
      "join": 997,
      "Majesty": 998,
      "Don": 999,
      "Let": 1000,
      "OF": 1001,
      "Pi": 1002,
      "ake": 1003,
      "cr": 1004,
      "car": 1005,
      "dou": 1006,
      "ef": 1007,
      "eager": 1008,
      "hall": 1009,
      "ken": 1010,
      "main": 1011,
      "matter": 1012,
      "pass": 1013,
      "rink": 1014,
      "sleep": 1015,
      "snee": 1016,
      "sister": 1017,
      "inst": 1018,
      "rece": 1019,
      "really": 1020,
      "tho": 1021,
      "org": 1022,
      "ised": 1023,
      "ars": 1024,
      "live": 1025,
      "char": 1026,
      "wasn": 1027,
      "ldi": 1028,
      "soldi": 1029,
      "shout": 1030,
      "cked": 1031,
      "word": 1032,
      "sub": 1033,
      "deep": 1034,
      "whether": 1035,
      "using": 1036,
      "convers": 1037,
      "offend": 1038,
      "times": 1039,
      "grin": 1040,
      "box": 1041,
      "quet": 1042,
      "ready": 1043,
      "minutes": 1044,
      "glad": 1045,
      "nearly": 1046,
      "growing": 1047,
      "waited": 1048,
      "Off": 1049,
      "hardly": 1050,
      "learn": 1051,
      "silence": 1052,
      "trial": 1053,
      "Here": 1054,
      "listen": 1055,
      "reason": 1056,
      "Footman": 1057,
      "claim": 1058,
      "gloves": 1059,
      "Pigeon": 1060,
      "AR": 1061,
      "Lic": 1062,
      "On": 1063,
      "Whe": 1064,
      "_you": 1065,
      "aking": 1066,
      "bright": 1067,
      "cre": 1068,
      "ced": 1069,
      "cor": 1070,
      "cid": 1071,
      "ding": 1072,
      "dle": 1073,
      "either": 1074,
      "fur": 1075,
      "fright": 1076,
      "gra": 1077,
      "gutenberg": 1078,
      "ick": 1079,
      "oh": 1080,
      "opp": 1081,
      "pool": 1082,
      "stoo": 1083,
      "vi": 1084,
      "wo": 1085,
      "wind": 1086,
      "erent": 1087,
      "though": 1088,
      "sever": 1089,
      "belie": 1090,
      "adv": 1091,
      "rily": 1092,
      "witness": 1093,
      "key": 1094,
      "having": 1095,
      "few": 1096,
      "tears": 1097,
      "against": 1098,
      "contin": 1099,
      "yourself": 1100,
      "ments": 1101,
      "jump": 1102,
      "sig": 1103,
      "sight": 1104,
      "thinking": 1105,
      "ortun": 1106,
      "twink": 1107,
      "mine": 1108,
      "writing": 1109,
      "glass": 1110,
      "mbling": 1111,
      "remarked": 1112,
      "lessons": 1113,
      "open": 1114,
      "opened": 1115,
      "walked": 1116,
      "children": 1117,
      "dream": 1118,
      "party": 1119,
      "sitting": 1120,
      "www": 1121,
      "creatures": 1122,
      "repeated": 1123,
      "appeared": 1124,
      "different": 1125,
      "coun": 1126,
      "person": 1127,
      "bottle": 1128,
      "piece": 1129,
      "sharp": 1130,
      "hedgeho": 1131,
      "doub": 1132,
      "soldiers": 1133,
      "offended": 1134,
      "License": 1135,
      "When": 1136,
      "opportun": 1137,
      ",)": 1138,
      "Ad": 1139,
      "At": 1140,
      "Bea": 1141,
      "CT": 1142,
      "Kn": 1143,
      "Not": 1144,
      "Would": 1145,
      "au": 1146,
      "aw": 1147,
      "ather": 1148,
      "br": 1149,
      "bs": 1150,
      "bow": 1151,
      "bro": 1152,
      "care": 1153,
      "crow": 1154,
      "des": 1155,
      "four": 1156,
      "ger": 1157,
      "ich": 1158,
      "ky": 1159,
      "kind": 1160,
      "loud": 1161,
      "mn": 1162,
      "ol": 1163,
      "rate": 1164,
      "sp": 1165,
      "serpent": 1166,
      "tree": 1167,
      "um": 1168,
      "ued": 1169,
      "ust": 1170,
      "wood": 1171,
      "itten": 1172,
      "ati": 1173,
      "rea": 1174,
      "top": 1175,
      "tory": 1176,
      "order": 1177,
      "least": 1178,
      "ket": 1179,
      "shook": 1180,
      "notic": 1181,
      "cking": 1182,
      "copi": 1183,
      "world": 1184,
      "moved": 1185,
      "gold": 1186,
      "couldn": 1187,
      "consid": 1188,
      "lob": 1189,
      "heads": 1190,
      "fund": 1191,
      "ending": 1192,
      "pig": 1193,
      "prov": 1194,
      "coming": 1195,
      "angrily": 1196,
      "prot": 1197,
      "written": 1198,
      "ears": 1199,
      "feeling": 1200,
      "ventures": 1201,
      "repeat": 1202,
      "execution": 1203,
      "THE": 1204,
      "moral": 1205,
      "explain": 1206,
      "puzzled": 1207,
      "birds": 1208,
      "mission": 1209,
      "timidly": 1210,
      "interrupted": 1211,
      "sneez": 1212,
      "recei": 1213,
      "those": 1214,
      "shouted": 1215,
      "conversation": 1216,
      "believe": 1217,
      "continued": 1218,
      "opportunity": 1219,
      "Knave": 1220,
      "consider": 1221,
      "En": 1222,
      "IT": 1223,
      "ON": 1224,
      "OU": 1225,
      "UT": 1226,
      "_is": 1227,
      "_your": 1228,
      "bat": 1229,
      "cy": 1230,
      "cus": 1231,
      "cket": 1232,
      "dly": 1233,
      "dry": 1234,
      "dread": 1235,
      "draw": 1236,
      "fish": 1237,
      "fact": 1238,
      "ged": 1239,
      "iam": 1240,
      "late": 1241,
      "mit": 1242,
      "mer": 1243,
      "ni": 1244,
      "nu": 1245,
      "nat": 1246,
      "ned": 1247,
      "nice": 1248,
      "pper": 1249,
      "prom": 1250,
      "slow": 1251,
      "ught": 1252,
      "usu": 1253,
      "ult": 1254,
      "yal": 1255,
      "—‘": 1256,
      "int": 1257,
      "iness": 1258,
      "refund": 1259,
      "ash": 1260,
      "asso": 1261,
      "asleep": 1262,
      "leave": 1263,
      "ses": 1264,
      "secon": 1265,
      "light": 1266,
      "state": 1267,
      "chin": 1268,
      "sole": 1269,
      "white": 1270,
      "whiting": 1271,
      "almost": 1272,
      "forth": 1273,
      "forgot": 1274,
      "shroom": 1275,
      "ney": 1276,
      "aged": 1277,
      "haven": 1278,
      "feel": 1279,
      "nose": 1280,
      "mushroom": 1281,
      "Which": 1282,
      "ected": 1283,
      "seem": 1284,
      "usion": 1285,
      "others": 1286,
      "aming": 1287,
      "offic": 1288,
      "making": 1289,
      "acle": 1290,
      "marked": 1291,
      "cular": 1292,
      "days": 1293,
      "paw": 1294,
      "distance": 1295,
      "pressed": 1296,
      "waiting": 1297,
      "means": 1298,
      "meaning": 1299,
      "formation": 1300,
      "distributing": 1301,
      "gardeners": 1302,
      "fancy": 1303,
      "actly": 1304,
      "ciated": 1305,
      "vidence": 1306,
      "croquet": 1307,
      "each": 1308,
      "middle": 1309,
      "watch": 1310,
      "followed": 1311,
      "William": 1312,
      "business": 1313,
      "running": 1314,
      "slates": 1315,
      "including": 1316,
      "whisper": 1317,
      "_that_": 1318,
      "beautiful": 1319,
      "changed": 1320,
      "eagerly": 1321,
      "subject": 1322,
      "_you_": 1323,
      "viol": 1324,
      "window": 1325,
      "doubt": 1326,
      "noticed": 1327,
      "Engl": 1328,
      "_is_": 1329,
      "slowly": 1330,
      "associated": 1331,
      ".’”": 1332,
      "AG": 1333,
      "Che": 1334,
      "ED": 1335,
      "Ex": 1336,
      "Five": 1337,
      "First": 1338,
      "IS": 1339,
      "Just": 1340,
      "Li": 1341,
      "Lor": 1342,
      "Re": 1343,
      "SE": 1344,
      "Soo": 1345,
      "Section": 1346,
      "_not": 1347,
      "_what": 1348,
      "bur": 1349,
      "bread": 1350,
      "cri": 1351,
      "dro": 1352,
      "eg": 1353,
      "em": 1354,
      "eas": 1355,
      "ell": 1356,
      "gir": 1357,
      "hot": 1358,
      "hun": 1359,
      "ies": 1360,
      "ls": 1361,
      "pay": 1362,
      "pup": 1363,
      "pard": 1364,
      "sch": 1365,
      "sir": 1366,
      "song": 1367,
      "scre": 1368,
      "tu": 1369,
      "ty": 1370,
      "ug": 1371,
      "—“": 1372,
      "ank": 1373,
      "itions": 1374,
      "att": 1375,
      "ret": 1376,
      "remain": 1377,
      "aster": 1378,
      "isn": 1379,
      "lea": 1380,
      "stup": 1381,
      "sters": 1382,
      "chim": 1383,
      "oop": 1384,
      "show": 1385,
      "shut": 1386,
      "shire": 1387,
      "neck": 1388,
      "notice": 1389,
      "hadn": 1390,
      "tired": 1391,
      "ticular": 1392,
      "hair": 1393,
      "ssi": 1394,
      "history": 1395,
      "decid": 1396,
      "delight": 1397,
      "pocket": 1398,
      "possi": 1399,
      "uncom": 1400,
      "begun": 1401,
      "goes": 1402,
      "quire": 1403,
      "locat": 1404,
      "grown": 1405,
      "ground": 1406,
      "tax": 1407,
      "sigh": 1408,
      "ately": 1409,
      "myself": 1410,
      "however": 1411,
      "reading": 1412,
      "ends": 1413,
      "larger": 1414,
      "provid": 1415,
      "process": 1416,
      "manage": 1417,
      "eye": 1418,
      "pair": 1419,
      "understand": 1420,
      "mbled": 1421,
      "wondering": 1422,
      "trees": 1423,
      "onsense": 1424,
      "distribution": 1425,
      "happened": 1426,
      "sentence": 1427,
      "particular": 1428,
      "venture": 1429,
      "story": 1430,
      "eBooks": 1431,
      "silent": 1432,
      "diffic": 1433,
      "sides": 1434,
      "flaming": 1435,
      "quiet": 1436,
      "pleased": 1437,
      "temper": 1438,
      "tempt": 1439,
      "generally": 1440,
      "shoes": 1441,
      "surprised": 1442,
      "frightened": 1443,
      "stood": 1444,
      "hedgehog": 1445,
      "atiently": 1446,
      "copies": 1447,
      "golden": 1448,
      "lobsters": 1449,
      "provide": 1450,
      "_your_": 1451,
      "number": 1452,
      "solemn": 1453,
      "English": 1454,
      "Cheshire": 1455,
      "Lory": 1456,
      "puppy": 1457,
      "pardon": 1458,
      "school": 1459,
      "chimney": 1460,
      "decided": 1461,
      "located": 1462,
      "flamingo": 1463,
      "Af": 1464,
      "All": 1465,
      "CE": 1466,
      "ES": 1467,
      "Lob": 1468,
      "One": 1469,
      "Ple": 1470,
      "Qu": 1471,
      "TI": 1472,
      "Two": 1473,
      "YOU": 1474,
      "av": 1475,
      "app": 1476,
      "ail": 1477,
      "bly": 1478,
      "dare": 1479,
      "ew": 1480,
      "evidence": 1481,
      "fi": 1482,
      "fun": 1483,
      "gre": 1484,
      "ging": 1485,
      "ges": 1486,
      "hour": 1487,
      "ied": 1488,
      "lan": 1489,
      "land": 1490,
      "lad": 1491,
      "link": 1492,
      "line": 1493,
      "men": 1494,
      "nur": 1495,
      "nonsense": 1496,
      "por": 1497,
      "pri": 1498,
      "rid": 1499,
      "rabbit": 1500,
      "s_": 1501,
      "sn": 1502,
      "sor": 1503,
      "sim": 1504,
      "tch": 1505,
      "tru": 1506,
      "tarts": 1507,
      "ual": 1508,
      "wise": 1509,
      "wards": 1510,
      "zes": 1511,
      "zard": 1512,
      "inches": 1513,
      "ouble": 1514,
      "anim": 1515,
      "ith": 1516,
      "require": 1517,
      "told": 1518,
      "editions": 1519,
      "ors": 1520,
      "often": 1521,
      "ison": 1522,
      "aring": 1523,
      "arms": 1524,
      "argu": 1525,
      "liked": 1526,
      "youth": 1527,
      "bel": 1528,
      "beat": 1529,
      "below": 1530,
      "melan": 1531,
      "sts": 1532,
      "stay": 1533,
      "utter": 1534,
      "lded": 1535,
      "allow": 1536,
      "roof": 1537,
      "ross": 1538,
      "royal": 1539,
      "outside": 1540,
      "within": 1541,
      "als": 1542,
      "along": 1543,
      "ties": 1544,
      "coll": 1545,
      "fell": 1546,
      "fetch": 1547,
      "worth": 1548,
      "litely": 1549,
      "ssing": 1550,
      "immedi": 1551,
      "pepper": 1552,
      "While": 1553,
      "politely": 1554,
      "unte": 1555,
      "wel": 1556,
      "ween": 1557,
      "permission": 1558,
      "amed": 1559,
      "somebody": 1560,
      "ext": 1561,
      "exclaim": 1562,
      "love": 1563,
      "vol": 1564,
      "pict": 1565,
      "pigs": 1566,
      "hope": 1567,
      "himself": 1568,
      "paid": 1569,
      "paper": 1570,
      "spect": 1571,
      "trouble": 1572,
      "inea": 1573,
      "Hearts": 1574,
      "present": 1575,
      "display": 1576,
      "ign": 1577,
      "trembling": 1578,
      "format": 1579,
      "distribute": 1580,
      "guess": 1581,
      "guinea": 1582,
      "walk": 1583,
      "interest": 1584,
      "finish": 1585,
      "executed": 1586,
      "license": 1587,
      "***": 1588,
      "swim": 1589,
      "swam": 1590,
      "choly": 1591,
      "comply": 1592,
      "shriek": 1593,
      "charge": 1594,
      "grave": 1595,
      "jumped": 1596,
      "broken": 1597,
      "protected": 1598,
      "executioner": 1599,
      "sneezing": 1600,
      "received": 1601,
      "dreadfully": 1602,
      "second": 1603,
      "forgotten": 1604,
      "Lizard": 1605,
      "_not_": 1606,
      "leaves": 1607,
      "stupid": 1608,
      "difficult": 1609,
      "After": 1610,
      "Lobster": 1611,
      "Please": 1612,
      "simple": 1613,
      "melancholy": 1614,
      "exclaimed": 1615,
      "!’": 1616,
      "(“": 1617,
      "11": 1618,
      "AD": 1619,
      "Ah": 1620,
      "Are": 1621,
      "Be": 1622,
      "By": 1623,
      "Con": 1624,
      "Every": 1625,
      "FU": 1626,
      "My": 1627,
      "Miss": 1628,
      "NO": 1629,
      "Nor": 1630,
      "PR": 1631,
      "Seven": 1632,
      "TR": 1633,
      "TY": 1634,
      "To": 1635,
      "Tell": 1636,
      "Ver": 1637,
      "Won": 1638,
      "Where": 1639,
      "_was": 1640,
      "_would": 1641,
      "bring": 1642,
      "cle": 1643,
      "cup": 1644,
      "cry": 1645,
      "cru": 1646,
      "case": 1647,
      "clear": 1648,
      "din": 1649,
      "drink": 1650,
      "ff": 1651,
      "fing": 1652,
      "fri": 1653,
      "fire": 1654,
      "fig": 1655,
      "gar": 1656,
      "hook": 1657,
      "kid": 1658,
      "kno": 1659,
      "knee": 1660,
      "lay": 1661,
      "mi": 1662,
      "mon": 1663,
      "mutter": 1664,
      "ng": 1665,
      "ny": 1666,
      "night": 1667,
      "nine": 1668,
      "oc": 1669,
      "os": 1670,
      "pit": 1671,
      "ping": 1672,
      "pur": 1673,
      "pack": 1674,
      "rown": 1675,
      "sic": 1676,
      "spl": 1677,
      "sque": 1678,
      "sky": 1679,
      "twel": 1680,
      "umb": 1681,
      "van": 1682,
      "vous": 1683,
      "wand": 1684,
      "wink": 1685,
      "height": 1686,
      "inv": 1687,
      "ition": 1688,
      "ered": 1689,
      "thor": 1690,
      "throw": 1691,
      "eds": 1692,
      "asking": 1693,
      "lle": 1694,
      "lled": 1695,
      "ceed": 1696,
      "arrow": 1697,
      "leg": 1698,
      "lif": 1699,
      "liance": 1700,
      "sage": 1701,
      "sadly": 1702,
      "young": 1703,
      "become": 1704,
      "meant": 1705,
      "adri": 1706,
      "addre": 1707,
      "start": 1708,
      "stran": 1709,
      "stick": 1710,
      "wash": 1711,
      "ots": 1712,
      "rose": 1713,
      "alone": 1714,
      "aloud": 1715,
      "altogether": 1716,
      "oose": 1717,
      "fortable": 1718,
      "shan": 1719,
      "shrink": 1720,
      "neat": 1721,
      "doing": 1722,
      "til": 1723,
      "fellow": 1724,
      "nobody": 1725,
      "sul": 1726,
      "race": 1727,
      "defect": 1728,
      "anyone": 1729,
      "poin": 1730,
      "teen": 1731,
      "teac": 1732,
      "until": 1733,
      "seems": 1734,
      "perform": 1735,
      "likely": 1736,
      "check": 1737,
      "folded": 1738,
      "sometimes": 1739,
      "except": 1740,
      "exactly": 1741,
      "indign": 1742,
      "plan": 1743,
      "plain": 1744,
      "cannot": 1745,
      "donate": 1746,
      "grun": 1747,
      "taking": 1748,
      "jud": 1749,
      "pping": 1750,
      "derland": 1751,
      "across": 1752,
      "twice": 1753,
      "home": 1754,
      "proper": 1755,
      "produ": 1756,
      "shouldn": 1757,
      "reply": 1758,
      "angry": 1759,
      "speaking": 1760,
      "write": 1761,
      "wrong": 1762,
      "nearer": 1763,
      "everybody": 1764,
      "evening": 1765,
      "mbs": 1766,
      "waving": 1767,
      "airs": 1768,
      "treacle": 1769,
      "curios": 1770,
      "impatiently": 1771,
      "clock": 1772,
      "walking": 1773,
      "letter": 1774,
      "drew": 1775,
      "Information": 1776,
      "faces": 1777,
      "remembered": 1778,
      "ENT": 1779,
      "stop": 1780,
      "water": 1781,
      "between": 1782,
      "morning": 1783,
      "obtain": 1784,
      "rawling": 1785,
      "nervous": 1786,
      "confusion": 1787,
      "explan": 1788,
      "happens": 1789,
      "direction": 1790,
      "shrill": 1791,
      "bbing": 1792,
      "sounded": 1793,
      "medium": 1794,
      "surprise": 1795,
      "effort": 1796,
      "passed": 1797,
      "sleepy": 1798,
      "instantly": 1799,
      "several": 1800,
      "sighed": 1801,
      "twinkle": 1802,
      "country": 1803,
      "Adventures": 1804,
      "Beautiful": 1805,
      "crowded": 1806,
      "mitted": 1807,
      "nibb": 1808,
      "usual": 1809,
      "paws": 1810,
      "whispered": 1811,
      "dropped": 1812,
      "eggs": 1813,
      "procession": 1814,
      "quietly": 1815,
      "Quadri": 1816,
      "sorrow": 1817,
      "unteers": 1818,
      "interesting": 1819,
      "PRO": 1820,
      "Very": 1821,
      "Wonderland": 1822,
      "_was_": 1823,
      "_would_": 1824,
      "finger": 1825,
      "hookah": 1826,
      "strange": 1827,
      "teacup": 1828,
      "curiosity": 1829,
      "Quadrille": 1830,
      ").": 1831,
      ",’”": 1832,
      "00": 1833,
      "?—": 1834,
      "AB": 1835,
      "AL": 1836,
      "BER": 1837,
      "Can": 1838,
      "Call": 1839,
      "Cau": 1840,
      "DA": 1841,
      "Down": 1842,
      "ECT": 1843,
      "Fren": 1844,
      "FOR": 1845,
      "Father": 1846,
      "GUT": 1847,
      "Hold": 1848,
      "IV": 1849,
      "JECT": 1850,
      "LL": 1851,
      "Long": 1852,
      "Mary": 1853,
      "Never": 1854,
      "Pr": 1855,
      "Ro": 1856,
      "RAN": 1857,
      "Sa": 1858,
      "Se": 1859,
      "Sh": 1860,
      "Sure": 1861,
      "Take": 1862,
      "VII": 1863,
      "WAR": 1864,
      "With": 1865,
      "_me": 1866,
      "_have": 1867,
      "_can": 1868,
      "_You": 1869,
      "_think": 1870,
      "ax": 1871,
      "breat": 1872,
      "bank": 1873,
      "dam": 1874,
      "dark": 1875,
      "dish": 1876,
      "dition": 1877,
      "ead": 1878,
      "fit": 1879,
      "fer": 1880,
      "fon": 1881,
      "fly": 1882,
      "fill": 1883,
      "flo": 1884,
      "fast": 1885,
      "fla": 1886,
      "flow": 1887,
      "fair": 1888,
      "frown": 1889,
      "gi": 1890,
      "gue": 1891,
      "gently": 1892,
      "hon": 1893,
      "ial": 1894,
      "ilit": 1895,
      "ivid": 1896,
      "kit": 1897,
      "lat": 1898,
      "mice": 1899,
      "master": 1900,
      "none": 1901,
      "pan": 1902,
      "pas": 1903,
      "patter": 1904,
      "port": 1905,
      "rase": 1906,
      "sin": 1907,
      "ser": 1908,
      "sed": 1909,
      "sli": 1910,
      "soup": 1911,
      "tong": 1912,
      "tast": 1913,
      "ull": 1914,
      "ude": 1915,
      "uff": 1916,
      "var": 1917,
      "vil": 1918,
      "vage": 1919,
      "wow": 1920,
      "wide": 1921,
      "wild": 1922,
      "yer": 1923,
      "yaw": 1924,
      "—’": 1925,
      "—’”": 1926,
      "held": 1927,
      "itude": 1928,
      "atus": 1929,
      "ones": 1930,
      "online": 1931,
      "real": 1932,
      "return": 1933,
      "replace": 1934,
      "removed": 1935,
      "tom": 1936,
      "thim": 1937,
      "orus": 1938,
      "ider": 1939,
      "isit": 1940,
      "arre": 1941,
      "arse": 1942,
      "arches": 1943,
      "search": 1944,
      "lives": 1945,
      "savage": 1946,
      "behead": 1947,
      "met": 1948,
      "meet": 1949,
      "adventures": 1950,
      "sted": 1951,
      "stra": 1952,
      "states": 1953,
      "stairs": 1954,
      "status": 1955,
      "chance": 1956,
      "verse": 1957,
      "verdi": 1958,
      "verses": 1959,
      "ote": 1960,
      "hers": 1961,
      "esca": 1962,
      "solic": 1963,
      "sobs": 1964,
      "also": 1965,
      "alter": 1966,
      "ural": 1967,
      "short": 1968,
      "upset": 1969,
      "need": 1970,
      "tip": 1971,
      "cost": 1972,
      "cover": 1973,
      "fear": 1974,
      "fees": 1975,
      "ify": 1976,
      "pet": 1977,
      "pect": 1978,
      "peep": 1979,
      "move": 1980,
      "selves": 1981,
      "rage": 1982,
      "dead": 1983,
      "poise": 1984,
      "posted": 1985,
      "teles": 1986,
      "unless": 1987,
      "week": 1988,
      "webs": 1989,
      "perfect": 1990,
      "capit": 1991,
      "otherwise": 1992,
      "chen": 1993,
      "concer": 1994,
      "contempt": 1995,
      "quarre": 1996,
      "exp": 1997,
      "expect": 1998,
      "individ": 1999,
      "ication": 2000,
      "thoughtfully": 2001,
      "phrase": 2002,
      "grass": 2003,
      "says": 2004,
      "tact": 2005,
      "taken": 2006,
      "taught": 2007,
      "deri": 2008,
      "accept": 2009,
      "hole": 2010,
      "hoarse": 2011,
      "comput": 2012,
      "ledge": 2013,
      "shoulder": 2014,
      "shoulders": 2015,
      "managed": 2016,
      "pale": 2017,
      "rule": 2018,
      "rush": 2019,
      "rules": 2020,
      "copying": 2021,
      "Some": 2022,
      "elbow": 2023,
      "sett": 2024,
      "jurors": 2025,
      "true": 2026,
      "begins": 2027,
      "pret": 2028,
      "earth": 2029,
      "Nothing": 2030,
      "jurymen": 2031,
      "disclaim": 2032,
      "igging": 2033,
      "distributed": 2034,
      "smi": 2035,
      "questions": 2036,
      "civil": 2037,
      "suppressed": 2038,
      "support": 2039,
      "players": 2040,
      "cross": 2041,
      "hearing": 2042,
      "ENBER": 2043,
      "creature": 2044,
      "Mabel": 2045,
      "following": 2046,
      "appear": 2047,
      "ootiful": 2048,
      "courage": 2049,
      "tiny": 2050,
      "wanted": 2051,
      "keeping": 2052,
      "quick": 2053,
      "AND": 2054,
      "ANY": 2055,
      "bottom": 2056,
      "busily": 2057,
      "confused": 2058,
      "holder": 2059,
      "compliance": 2060,
      "puzzling": 2061,
      "answered": 2062,
      "mouths": 2063,
      "fallen": 2064,
      "slate": 2065,
      "fortun": 2066,
      "Ann": 2067,
      "freely": 2068,
      "beaut": 2069,
      "shore": 2070,
      "carry": 2071,
      "carried": 2072,
      "passion": 2073,
      "deeply": 2074,
      "corner": 2075,
      "further": 2076,
      "severely": 2077,
      "jumping": 2078,
      "twinkling": 2079,
      "sharply": 2080,
      "Beau": 2081,
      "bowed": 2082,
      "crowd": 2083,
      "reach": 2084,
      "ordered": 2085,
      "bats": 2086,
      "natural": 2087,
      "officers": 2088,
      "violently": 2089,
      "easily": 2090,
      "girl": 2091,
      "hung": 2092,
      "screamed": 2093,
      "retched": 2094,
      "possible": 2095,
      "uncomfortable": 2096,
      "providing": 2097,
      "ventured": 2098,
      "solemnly": 2099,
      "decidedly": 2100,
      "green": 2101,
      "hours": 2102,
      "porpoise": 2103,
      "animals": 2104,
      "requirements": 2105,
      "argument": 2106,
      "collection": 2107,
      "volunteers": 2108,
      "pictures": 2109,
      "displaying": 2110,
      "difficulty": 2111,
      "crumbs": 2112,
      "twelve": 2113,
      "vanished": 2114,
      "shrinking": 2115,
      "pointing": 2116,
      "indignantly": 2117,
      "grunted": 2118,
      "judge": 2119,
      "explanation": 2120,
      "PROJECT": 2121,
      "Caucus": 2122,
      "French": 2123,
      "GUTENBER": 2124,
      "Said": 2125,
      "WARRAN": 2126,
      "_me_": 2127,
      "_have_": 2128,
      "_can_": 2129,
      "_think_": 2130,
      "breath": 2131,
      "fond": 2132,
      "frowning": 2133,
      "honour": 2134,
      "ility": 2135,
      "kitchen": 2136,
      "passage": 2137,
      "since": 2138,
      "tongue": 2139,
      "thimble": 2140,
      "straight": 2141,
      "verdict": 2142,
      "escape": 2143,
      "telesco": 2144,
      "website": 2145,
      "perfectly": 2146,
      "capital": 2147,
      "individual": 2148,
      "GUTENBERG": 2149,
      "!—": 2150,
      "!’”": 2151,
      ",’": 2152,
      ".—": 2153,
      ".’": 2154,
      "20": 2155,
      ";”": 2156,
      "AS": 2157,
      "AT": 2158,
      "BUT": 2159,
      "Ch": 2160,
      "Car": 2161,
      "Cons": 2162,
      "Did": 2163,
      "DER": 2164,
      "DIS": 2165,
      "Drawling": 2166,
      "EM": 2167,
      "Ed": 2168,
      "Eag": 2169,
      "Go": 2170,
      "Give": 2171,
      "Gener": 2172,
      "Have": 2173,
      "Is": 2174,
      "ILI": 2175,
      "LA": 2176,
      "Lat": 2177,
      "Lew": 2178,
      "ME": 2179,
      "May": 2180,
      "MIT": 2181,
      "MAG": 2182,
      "Ow": 2183,
      "Pan": 2184,
      "Per": 2185,
      "Pat": 2186,
      "Pep": 2187,
      "Pig": 2188,
      "Right": 2189,
      "Sto": 2190,
      "Sup": 2191,
      "Spe": 2192,
      "Sil": 2193,
      "Serpent": 2194,
      "Ti": 2195,
      "Tor": 2196,
      "Tis": 2197,
      "Twink": 2198,
      "Up": 2199,
      "VI": 2200,
      "Yet": 2201,
      "_he": 2202,
      "_she": 2203,
      "_one": 2204,
      "_this": 2205,
      "_are": 2206,
      "_could": 2207,
      "_must": 2208,
      "_will": 2209,
      "_That": 2210,
      "alive": 2211,
      "bound": 2212,
      "bark": 2213,
      "blow": 2214,
      "bran": 2215,
      "blic": 2216,
      "brea": 2217,
      "cing": 2218,
      "cand": 2219,
      "cal": 2220,
      "cil": 2221,
      "cards": 2222,
      "cceed": 2223,
      "dri": 2224,
      "dated": 2225,
      "ech": 2226,
      "eel": 2227,
      "equi": 2228,
      "fut": 2229,
      "fits": 2230,
      "fight": 2231,
      "fron": 2232,
      "faster": 2233,
      "hang": 2234,
      "humb": 2235,
      "ie": 2236,
      "jaw": 2237,
      "kill": 2238,
      "kers": 2239,
      "kick": 2240,
      "kni": 2241,
      "m_": 2242,
      "ming": 2243,
      "mis": 2244,
      "mone": 2245,
      "mist": 2246,
      "mile": 2247,
      "mpet": 2248,
      "non": 2249,
      "ners": 2250,
      "oy": 2251,
      "ove": 2252,
      "pin": 2253,
      "pen": 2254,
      "pain": 2255,
      "pun": 2256,
      "pment": 2257,
      "past": 2258,
      "pity": 2259,
      "rat": 2260,
      "sk": 2261,
      "smo": 2262,
      "sense": 2263,
      "simp": 2264,
      "sending": 2265,
      "tis": 2266,
      "twent": 2267,
      "treat": 2268,
      "ush": 2269,
      "une": 2270,
      "uck": 2271,
      "uous": 2272,
      "vat": 2273,
      "vice": 2274,
      "win": 2275,
      "xed": 2276,
      "ying": 2277,
      "yest": 2278,
      "zed": 2279,
      "’!”": 2280,
      "“‘": 2281,
      "hes": 2282,
      "inted": 2283,
      "information": 2284,
      "oun": 2285,
      "anta": 2286,
      "anced": 2287,
      "itation": 2288,
      "ering": 2289,
      "eral": 2290,
      "erday": 2291,
      "attempt": 2292,
      "regu": 2293,
      "resent": 2294,
      "relie": 2295,
      "respect": 2296,
      "toes": 2297,
      "toise": 2298,
      "tossing": 2299,
      "thand": 2300,
      "edge": 2301,
      "eng": 2302,
      "encour": 2303,
      "ashed": 2304,
      "lling": 2305,
      "ising": 2306,
      "around": 2307,
      "legs": 2308,
      "livery": 2309,
      "lived": 2310,
      "liged": 2311,
      "limit": 2312,
      "sad": 2313,
      "sal": 2314,
      "sau": 2315,
      "beast": 2316,
      "belong": 2317,
      "besides": 2318,
      "mes": 2319,
      "ading": 2320,
      "aded": 2321,
      "addition": 2322,
      "stant": 2323,
      "staring": 2324,
      "stuff": 2325,
      "utiously": 2326,
      "chorus": 2327,
      "rog": 2328,
      "roll": 2329,
      "rodu": 2330,
      "roses": 2331,
      "entity": 2332,
      "sobbing": 2333,
      "rious": 2334,
      "alas": 2335,
      "already": 2336,
      "ioned": 2337,
      "forgetting": 2338,
      "ability": 2339,
      "above": 2340,
      "shap": 2341,
      "shaking": 2342,
      "nest": 2343,
      "notion": 2344,
      "aging": 2345,
      "ages": 2346,
      "cks": 2347,
      "dog": 2348,
      "doth": 2349,
      "dogs": 2350,
      "owner": 2351,
      "worse": 2352,
      "noise": 2353,
      "impossible": 2354,
      "moving": 2355,
      "music": 2356,
      "suit": 2357,
      "sult": 2358,
      "succeed": 2359,
      "ract": 2360,
      "decl": 2361,
      "anywhere": 2362,
      "pos": 2363,
      "posit": 2364,
      "poison": 2365,
      "text": 2366,
      "unimportant": 2367,
      "unfortun": 2368,
      "ourn": 2369,
      "knowledge": 2370,
      "permitted": 2371,
      "user": 2372,
      "cake": 2373,
      "cakes": 2374,
      "caught": 2375,
      "cautiously": 2376,
      "themselves": 2377,
      "checked": 2378,
      "cheered": 2379,
      "contain": 2380,
      "contact": 2381,
      "constant": 2382,
      "somewhere": 2383,
      "exam": 2384,
      "plate": 2385,
      "mentioned": 2386,
      "lost": 2387,
      "grand": 2388,
      "tale": 2389,
      "takes": 2390,
      "ples": 2391,
      "pleaded": 2392,
      "six": 2393,
      "Turn": 2394,
      "boy": 2395,
      "boots": 2396,
      "mail": 2397,
      "mustard": 2398,
      "howling": 2399,
      "muchness": 2400,
      "acles": 2401,
      "accid": 2402,
      "accoun": 2403,
      "twist": 2404,
      "picked": 2405,
      "voices": 2406,
      "hoping": 2407,
      "oughly": 2408,
      "Duck": 2409,
      "longer": 2410,
      "putting": 2411,
      "catch": 2412,
      "handed": 2413,
      "Thank": 2414,
      "turns": 2415,
      "prison": 2416,
      "printed": 2417,
      "speech": 2418,
      "wrote": 2419,
      "trot": 2420,
      "dears": 2421,
      "growl": 2422,
      "hurt": 2423,
      "waist": 2424,
      "remarks": 2425,
      "remarking": 2426,
      "Nobody": 2427,
      "clusion": 2428,
      "lesson": 2429,
      "finding": 2430,
      "happy": 2431,
      "sorts": 2432,
      "cial": 2433,
      "public": 2434,
      "parts": 2435,
      "crossed": 2436,
      "END": 2437,
      "creating": 2438,
      "stopped": 2439,
      "watching": 2440,
      "THIS": 2441,
      "licable": 2442,
      "follows": 2443,
      "obliged": 2444,
      "anxious": 2445,
      "smaller": 2446,
      "dull": 2447,
      "swallow": 2448,
      "choked": 2449,
      "footman": 2450,
      "pleasant": 2451,
      "IND": 2452,
      "ING": 2453,
      "LIMIT": 2454,
      "RES": 2455,
      "confusing": 2456,
      "holding": 2457,
      "complying": 2458,
      "directly": 2459,
      "directions": 2460,
      "included": 2461,
      "whiskers": 2462,
      "paragraphs": 2463,
      "general": 2464,
      "sounds": 2465,
      "tails": 2466,
      "joined": 2467,
      "crown": 2468,
      "crash": 2469,
      "effect": 2470,
      "instance": 2471,
      "instead": 2472,
      "grinned": 2473,
      "listening": 2474,
      "ART": 2475,
      "Once": 2476,
      "Only": 2477,
      "advance": 2478,
      "advanta": 2479,
      "sign": 2480,
      "opening": 2481,
      "pieces": 2482,
      "hedgehogs": 2483,
      "brought": 2484,
      "carefully": 2485,
      "loudly": 2486,
      "spread": 2487,
      "serpents": 2488,
      "repeating": 2489,
      "considering": 2490,
      "considered": 2491,
      "custo": 2492,
      "promot": 2493,
      "usually": 2494,
      "introdu": 2495,
      "official": 2496,
      "AGRE": 2497,
      "Exactly": 2498,
      "burn": 2499,
      "easy": 2500,
      "girls": 2501,
      "hunting": 2502,
      "paying": 2503,
      "payments": 2504,
      "tucked": 2505,
      "attending": 2506,
      "remained": 2507,
      "possibly": 2508,
      "sighing": 2509,
      "provided": 2510,
      "applicable": 2511,
      "funny": 2512,
      "lady": 2513,
      "links": 2514,
      "nurse": 2515,
      "nursing": 2516,
      "prizes": 2517,
      "snail": 2518,
      "trumpet": 2519,
      "royalties": 2520,
      "immediate": 2521,
      "immediately": 2522,
      "extra": 2523,
      "spectacles": 2524,
      "guessed": 2525,
      "gravely": 2526,
      "Everybody": 2527,
      "North": 2528,
      "TRI": 2529,
      "bringing": 2530,
      "friend": 2531,
      "figure": 2532,
      "knocking": 2533,
      "miles": 2534,
      "muttering": 2535,
      "occur": 2536,
      "splash": 2537,
      "washing": 2538,
      "sulky": 2539,
      "defective": 2540,
      "teenth": 2541,
      "performing": 2542,
      "efforts": 2543,
      "nibbling": 2544,
      "DAMAG": 2545,
      "Pray": 2546,
      "See": 2547,
      "filled": 2548,
      "floor": 2549,
      "guests": 2550,
      "later": 2551,
      "pattering": 2552,
      "slipped": 2553,
      "tasted": 2554,
      "replacement": 2555,
      "beheaded": 2556,
      "needn": 2557,
      "covered": 2558,
      "peeped": 2559,
      "contemptuous": 2560,
      "expense": 2561,
      "expecting": 2562,
      "derivat": 2563,
      "settled": 2564,
      "hungry": 2565,
      "telescope": 2566,
      "Carroll": 2567,
      "Consider": 2568,
      "Eaglet": 2569,
      "General": 2570,
      "ILITY": 2571,
      "Lewis": 2572,
      "Owl": 2573,
      "Panther": 2574,
      "Perhaps": 2575,
      "Pepper": 2576,
      "Silence": 2577,
      "Time": 2578,
      "Tortoise": 2579,
      "Twinkle": 2580,
      "_he_": 2581,
      "_one_": 2582,
      "_are_": 2583,
      "_must_": 2584,
      "_will_": 2585,
      "_That_": 2586,
      "breathe": 2587,
      "candle": 2588,
      "equipment": 2589,
      "future": 2590,
      "hanging": 2591,
      "knife": 2592,
      "money": 2593,
      "mistake": 2594,
      "pencil": 2595,
      "simply": 2596,
      "uneas": 2597,
      "yesterday": 2598,
      "limitation": 2599,
      "shaped": 2600,
      "succeeded": 2601,
      "unfortunate": 2602,
      "accident": 2603,
      "LIMITED": 2604,
      "advantage": 2605,
      "derivative": 2606,
      "):": 2607,
      ");": 2608,
      ")—“": 2609,
      "--": 2610,
      "01": 2611,
      "15": 2612,
      "90": 2613,
      "?’”": 2614,
      "Al": 2615,
      "ACH": 2616,
      "ALI": 2617,
      "ACT": 2618,
      "BE": 2619,
      "BO": 2620,
      "BRE": 2621,
      "Cr": 2622,
      "Cro": 2623,
      "Com": 2624,
      "CEN": 2625,
      "CII": 2626,
      "CON": 2627,
      "DR": 2628,
      "De": 2629,
      "Digging": 2630,
      "EX": 2631,
      "Evidence": 2632,
      "EBO": 2633,
      "Fur": 2634,
      "Fish": 2635,
      "Get": 2636,
      "Ground": 2637,
      "Ho": 2638,
      "Hush": 2639,
      "IM": 2640,
      "IX": 2641,
      "Im": 2642,
      "IRE": 2643,
      "ILL": 2644,
      "Ke": 2645,
      "LE": 2646,
      "Last": 2647,
      "LAND": 2648,
      "Mer": 2649,
      "Mor": 2650,
      "Mad": 2651,
      "Mind": 2652,
      "Near": 2653,
      "NIT": 2654,
      "Next": 2655,
      "OK": 2656,
      "OSE": 2657,
      "PG": 2658,
      "PU": 2659,
      "Pl": 2660,
      "Po": 2661,
      "Par": 2662,
      "Pri": 2663,
      "Part": 2664,
      "Pool": 2665,
      "Present": 2666,
      "QU": 2667,
      "Red": 2668,
      "Race": 2669,
      "ST": 2670,
      "Su": 2671,
      "Shall": 2672,
      "Story": 2673,
      "Sends": 2674,
      "TO": 2675,
      "Ta": 2676,
      "Ter": 2677,
      "Tre": 2678,
      "Tea": 2679,
      "Tarts": 2680,
      "Tears": 2681,
      "UM": 2682,
      "US": 2683,
      "Ug": 2684,
      "Use": 2685,
      "Ugh": 2686,
      "URES": 2687,
      "Van": 2688,
      "VENT": 2689,
      "Wr": 2690,
      "Wow": 2691,
      "Wake": 2692,
      "WON": 2693,
      "XI": 2694,
      "XII": 2695,
      "Your": 2696,
      "_in": 2697,
      "_it": 2698,
      "_said": 2699,
      "_quite": 2700,
      "_ever": 2701,
      "_here": 2702,
      "_never": 2703,
      "_Un": 2704,
      "_important": 2705,
      "_best": 2706,
      "_mine": 2707,
      "ais": 2708,
      "ach": 2709,
      "aked": 2710,
      "bl": 2711,
      "bre": 2712,
      "bed": 2713,
      "bas": 2714,
      "bad": 2715,
      "bite": 2716,
      "bour": 2717,
      "bish": 2718,
      "bla": 2719,
      "bend": 2720,
      "blast": 2721,
      "bble": 2722,
      "beds": 2723,
      "barrow": 2724,
      "brush": 2725,
      "cas": 2726,
      "cir": 2727,
      "cif": 2728,
      "cra": 2729,
      "card": 2730,
      "cart": 2731,
      "cations": 2732,
      "cool": 2733,
      "claws": 2734,
      "dan": 2735,
      "date": 2736,
      "dles": 2737,
      "drun": 2738,
      "digging": 2739,
      "dais": 2740,
      "fed": 2741,
      "fain": 2742,
      "fif": 2743,
      "fra": 2744,
      "fam": 2745,
      "fine": 2746,
      "farm": 2747,
      "file": 2748,
      "father": 2749,
      "fash": 2750,
      "fav": 2751,
      "foun": 2752,
      "frog": 2753,
      "gid": 2754,
      "graph": 2755,
      "gister": 2756,
      "goose": 2757,
      "hit": 2758,
      "hat": 2759,
      "hatter": 2760,
      "hate": 2761,
      "hund": 2762,
      "harm": 2763,
      "hint": 2764,
      "igh": 2765,
      "ible": 2766,
      "ief": 2767,
      "jar": 2768,
      "kne": 2769,
      "knot": 2770,
      "kily": 2771,
      "kiss": 2772,
      "lid": 2773,
      "lone": 2774,
      "lves": 2775,
      "loose": 2776,
      "mar": 2777,
      "mur": 2778,
      "mous": 2779,
      "mpt": 2780,
      "mil": 2781,
      "mited": 2782,
      "mmer": 2783,
      "mourn": 2784,
      "nor": 2785,
      "nam": 2786,
      "narrow": 2787,
      "od": 2788,
      "ograph": 2789,
      "pat": 2790,
      "ped": 2791,
      "pid": 2792,
      "pot": 2793,
      "pes": 2794,
      "pite": 2795,
      "parch": 2796,
      "prep": 2797,
      "pence": 2798,
      "pends": 2799,
      "patiently": 2800,
      "pract": 2801,
      "rance": 2802,
      "ratt": 2803,
      "sand": 2804,
      "sen": 2805,
      "sof": 2806,
      "sour": 2807,
      "sation": 2808,
      "sca": 2809,
      "sang": 2810,
      "scro": 2811,
      "snat": 2812,
      "tou": 2813,
      "tas": 2814,
      "tse": 2815,
      "tly": 2816,
      "tall": 2817,
      "tent": 2818,
      "tra": 2819,
      "tribut": 2820,
      "treading": 2821,
      "tones": 2822,
      "uld": 2823,
      "ugh": 2824,
      "ump": 2825,
      "visit": 2826,
      "war": 2827,
      "wag": 2828,
      "wine": 2829,
      "wig": 2830,
      "wretched": 2831,
      "ys": 2832,
      "year": 2833,
      "years": 2834,
      "ysic": 2835,
      "zy": 2836,
      "zing": 2837,
      "’—": 2838,
      "“’": 2839,
      "heart": 2840,
      "heav": 2841,
      "ining": 2842,
      "intell": 2843,
      "invent": 2844,
      "inently": 2845,
      "oured": 2846,
      "aning": 2847,
      "anno": 2848,
      "itated": 2849,
      "ities": 2850,
      "eror": 2851,
      "erable": 2852,
      "atom": 2853,
      "ref": 2854,
      "rew": 2855,
      "returned": 2856,
      "refer": 2857,
      "research": 2858,
      "recovered": 2859,
      "register": 2860,
      "ings": 2861,
      "toe": 2862,
      "thro": 2863,
      "thous": 2864,
      "thump": 2865,
      "threw": 2866,
      "edu": 2867,
      "enny": 2868,
      "asse": 2869,
      "asha": 2870,
      "orter": 2871,
      "orig": 2872,
      "ordin": 2873,
      "ornam": 2874,
      "llent": 2875,
      "cep": 2876,
      "cellent": 2877,
      "ides": 2878,
      "ident": 2879,
      "ises": 2880,
      "ision": 2881,
      "isable": 2882,
      "arr": 2883,
      "arily": 2884,
      "leaning": 2885,
      "sell": 2886,
      "living": 2887,
      "liability": 2888,
      "limited": 2889,
      "safe": 2890,
      "salt": 2891,
      "sault": 2892,
      "sages": 2893,
      "shed": 2894,
      "shelves": 2895,
      "bear": 2896,
      "became": 2897,
      "mely": 2898,
      "memor": 2899,
      "meek": 2900,
      "metho": 2901,
      "sting": 2902,
      "stro": 2903,
      "stir": 2904,
      "stam": 2905,
      "step": 2906,
      "stru": 2907,
      "stretched": 2908,
      "chain": 2909,
      "chief": 2910,
      "wasting": 2911,
      "otic": 2912,
      "all_": 2913,
      "rolled": 2914,
      "roots": 2915,
      "enty": 2916,
      "ented": 2917,
      "entang": 2918,
      "entire": 2919,
      "soever": 2920,
      "somer": 2921,
      "ria": 2922,
      "rier": 2923,
      "rict": 2924,
      "alarm": 2925,
      "tern": 2926,
      "forget": 2927,
      "ably": 2928,
      "abide": 2929,
      "absur": 2930,
      "tles": 2931,
      "These": 2932,
      "shion": 2933,
      "share": 2934,
      "shill": 2935,
      "shared": 2936,
      "shorter": 2937,
      "neither": 2938,
      "neigh": 2939,
      "note": 2940,
      "ago": 2941,
      "agine": 2942,
      "domain": 2943,
      "tic": 2944,
      "tiers": 2945,
      "coat": 2946,
      "costs": 2947,
      "coax": 2948,
      "thistle": 2949,
      "nowhere": 2950,
      "feather": 2951,
      "owns": 2952,
      "ifies": 2953,
      "ifull": 2954,
      "ssion": 2955,
      "iment": 2956,
      "pebble": 2957,
      "ounds": 2958,
      "moder": 2959,
      "modif": 2960,
      "mus": 2961,
      "little_": 2962,
      "illa": 2963,
      "sun": 2964,
      "sugar": 2965,
      "summer": 2966,
      "raven": 2967,
      "rail": 2968,
      "raving": 2969,
      "raised": 2970,
      "rapid": 2971,
      "ectual": 2972,
      "depends": 2973,
      "destro": 2974,
      "unfolded": 2975,
      "unhappy": 2976,
      "unpleasant": 2977,
      "unrolled": 2978,
      "whenever": 2979,
      "whatever": 2980,
      "whatsoever": 2981,
      "wet": 2982,
      "weak": 2983,
      "knows": 2984,
      "knowing": 2985,
      "periment": 2986,
      "ational": 2987,
      "caused": 2988,
      "cauld": 2989,
      "conclu": 2990,
      "concept": 2991,
      "conclusion": 2992,
      "offer": 2993,
      "queror": 2994,
      "bye": 2995,
      "exist": 2996,
      "expre": 2997,
      "extre": 2998,
      "excellent": 2999,
      "experiment": 3000,
      "indic": 3001,
      "yours": 3002,
      "plates": 3003,
      "ploy": 3004,
      "plenty": 3005,
      "thoughts": 3006,
      "phantly": 3007,
      "physic": 3008,
      "etary": 3009,
      "locks": 3010,
      "bition": 3011,
      "grant": 3012,
      "isted": 3013,
      "istling": 3014,
      "istribut": 3015,
      "whom": 3016,
      "whose": 3017,
      "furious": 3018,
      "plete": 3019,
      "boards": 3020,
      "void": 3021,
      "Most": 3022,
      "linging": 3023,
      "ured": 3024,
      "useful": 3025,
      "accor": 3026,
      "lap": 3027,
      "laid": 3028,
      "laug": 3029,
      "label": 3030,
      "laugh": 3031,
      "readable": 3032,
      "ively": 3033,
      "picking": 3034,
      "courtiers": 3035,
      "prove": 3036,
      "proves": 3037,
      "proved": 3038,
      "propri": 3039,
      "proceed": 3040,
      "turtles": 3041,
      "comfort": 3042,
      "complain": 3043,
      "comfits": 3044,
      "complete": 3045,
      "ances": 3046,
      "forehead": 3047,
      "cucu": 3048,
      "cushion": 3049,
      "archbish": 3050,
      "ption": 3051,
      "longed": 3052,
      "pute": 3053,
      "manner": 3054,
      "undo": 3055,
      "unders": 3056,
      "report": 3057,
      "ences": 3058,
      "afterwards": 3059,
      "catching": 3060,
      "angu": 3061,
      "anger": 3062,
      "mson": 3063,
      "page": 3064,
      "pause": 3065,
      "rust": 3066,
      "rude": 3067,
      "rubbing": 3068,
      "lasted": 3069,
      "distant": 3070,
      "comes": 3071,
      "two_": 3072,
      "els": 3073,
      "doors": 3074,
      "tells": 3075,
      "telling": 3076,
      "undertone": 3077,
      "underneat": 3078,
      "prof": 3079,
      "proud": 3080,
      "specif": 3081,
      "Does": 3082,
      "trans": 3083,
      "tains": 3084,
      "CHOR": 3085,
      "apples": 3086,
      "prevent": 3087,
      "electronically": 3088,
      "earls": 3089,
      "earnest": 3090,
      "older": 3091,
      "remarkable": 3092,
      "wonderful": 3093,
      "hasn": 3094,
      "clam": 3095,
      "deny": 3096,
      "denied": 3097,
      "sooner": 3098,
      "blew": 3099,
      "disappeared": 3100,
      "dishes": 3101,
      "dispute": 3102,
      "trembled": 3103,
      "news": 3104,
      "wherever": 3105,
      "smile": 3106,
      "closed": 3107,
      "fanci": 3108,
      "lets": 3109,
      "mostly": 3110,
      "active": 3111,
      "cia": 3112,
      "feeble": 3113,
      "exempt": 3114,
      "playing": 3115,
      "Intern": 3116,
      "croque": 3117,
      "spoon": 3118,
      "created": 3119,
      "watched": 3120,
      "executions": 3121,
      "THAT": 3122,
      "learning": 3123,
      "appearing": 3124,
      "lieu": 3125,
      "places": 3126,
      "smallest": 3127,
      "*****": 3128,
      "III": 3129,
      "ringlets": 3130,
      "trium": 3131,
      "lefthand": 3132,
      "persisted": 3133,
      "Little": 3134,
      "curled": 3135,
      "curtse": 3136,
      "flat": 3137,
      "wants": 3138,
      "chose": 3139,
      "choice": 3140,
      "footstep": 3141,
      "pleasure": 3142,
      "INC": 3143,
      "INK": 3144,
      "LIAB": 3145,
      "LICEN": 3146,
      "busy": 3147,
      "singing": 3148,
      "singers": 3149,
      "resting": 3150,
      "restrict": 3151,
      "confir": 3152,
      "books": 3153,
      "directed": 3154,
      "falling": 3155,
      "names": 3156,
      "stery": 3157,
      "hurriedly": 3158,
      "Any": 3159,
      "bbed": 3160,
      "bird": 3161,
      "dipped": 3162,
      "generations": 3163,
      "minding": 3164,
      "missed": 3165,
      "changing": 3166,
      "changes": 3167,
      "sharing": 3168,
      "interrupting": 3169,
      "Donations": 3170,
      "matters": 3171,
      "sneeze": 3172,
      "sisters": 3173,
      "receive": 3174,
      "charges": 3175,
      "shouting": 3176,
      "conversations": 3177,
      "learnt": 3178,
      "reasonable": 3179,
      "brightened": 3180,
      "furrow": 3181,
      "stoop": 3182,
      "view": 3183,
      "woman": 3184,
      "advisable": 3185,
      "signed": 3186,
      "personal": 3187,
      "Advice": 3188,
      "author": 3189,
      "brown": 3190,
      "broke": 3191,
      "cares": 3192,
      "desk": 3193,
      "desper": 3194,
      "kindly": 3195,
      "reaching": 3196,
      "ordering": 3197,
      "copied": 3198,
      "goldfish": 3199,
      "lobster": 3200,
      "protect": 3201,
      "feelings": 3202,
      "sneezes": 3203,
      "receipt": 3204,
      "considerable": 3205,
      "dreadful": 3206,
      "merely": 3207,
      "nicely": 3208,
      "prominently": 3209,
      "yalty": 3210,
      "intment": 3211,
      "secondly": 3212,
      "William_": 3213,
      "violent": 3214,
      "doubtful": 3215,
      "doubtfully": 3216,
      "Except": 3217,
      "Explain": 3218,
      "Really": 3219,
      "_what_": 3220,
      "cribe": 3221,
      "crimson": 3222,
      "employ": 3223,
      "scream": 3224,
      "tumbling": 3225,
      "ugly": 3226,
      "uglif": 3227,
      "rets": 3228,
      "remaining": 3229,
      "shower": 3230,
      "showing": 3231,
      "shutting": 3232,
      "delighted": 3233,
      "delightful": 3234,
      "tempered": 3235,
      "flamingoes": 3236,
      "TION": 3237,
      "TIES": 3238,
      "avail": 3239,
      "fix": 3240,
      "files": 3241,
      "linked": 3242,
      "riddles": 3243,
      "truth": 3244,
      "animal": 3245,
      "beating": 3246,
      "collected": 3247,
      "lovely": 3248,
      "presents": 3249,
      "formats": 3250,
      "swimming": 3251,
      "ADVENT": 3252,
      "Conqueror": 3253,
      "Everything": 3254,
      "FUL": 3255,
      "FULL": 3256,
      "Mystery": 3257,
      "NOT": 3258,
      "clever": 3259,
      "cupboards": 3260,
      "crying": 3261,
      "clearly": 3262,
      "dinner": 3263,
      "friends": 3264,
      "mixed": 3265,
      "month": 3266,
      "muttered": 3267,
      "occas": 3268,
      "purring": 3269,
      "purpose": 3270,
      "squee": 3271,
      "squeaking": 3272,
      "umbria": 3273,
      "wandered": 3274,
      "wandering": 3275,
      "invited": 3276,
      "invitation": 3277,
      "thoroughly": 3278,
      "throwing": 3279,
      "legal": 3280,
      "legged": 3281,
      "lification": 3282,
      "addressed": 3283,
      "started": 3284,
      "startled": 3285,
      "neatly": 3286,
      "sulkily": 3287,
      "property": 3288,
      "produced": 3289,
      "obtaining": 3290,
      "nibbled": 3291,
      "sorrowful": 3292,
      "teacups": 3293,
      "IVE": 3294,
      "Longitude": 3295,
      "Rome": 3296,
      "Royalty": 3297,
      "VIII": 3298,
      "damages": 3299,
      "fit_": 3300,
      "ferrets": 3301,
      "flower": 3302,
      "flowers": 3303,
      "given": 3304,
      "giving": 3305,
      "panting": 3306,
      "vari": 3307,
      "various": 3308,
      "widest": 3309,
      "wildly": 3310,
      "yawning": 3311,
      "yawned": 3312,
      "solicit": 3313,
      "altern": 3314,
      "tiptoe": 3315,
      "concert": 3316,
      "concerning": 3317,
      "quarrelling": 3318,
      "accepted": 3319,
      "computer": 3320,
      "computers": 3321,
      "disclaimer": 3322,
      "smiling": 3323,
      "smiled": 3324,
      "quickly": 3325,
      "beautifull": 3326,
      "carrying": 3327,
      "WARRANTY": 3328,
      "WARRANTIES": 3329,
      "ASCII": 3330,
      "DERLAND": 3331,
      "DISTRI": 3332,
      "Edwin": 3333,
      "Latitude": 3334,
      "Stole": 3335,
      "Suppose": 3336,
      "Speak": 3337,
      "_she_": 3338,
      "_this_": 3339,
      "_could_": 3340,
      "branches": 3341,
      "calcu": 3342,
      "front": 3343,
      "humbly": 3344,
      "jaws": 3345,
      "miserable": 3346,
      "pinched": 3347,
      "painting": 3348,
      "smoking": 3349,
      "twenty": 3350,
      "uckily": 3351,
      "regular": 3352,
      "relief": 3353,
      "encouraging": 3354,
      "beasts": 3355,
      "belongs": 3356,
      "messages": 3357,
      "additional": 3358,
      "declare": 3359,
      "posse": 3360,
      "position": 3361,
      "texts": 3362,
      "examine": 3363,
      "account": 3364,
      "prisoner": 3365,
      "trotting": 3366,
      "waistcoat": 3367,
      "custody": 3368,
      "promoting": 3369,
      "introduce": 3370,
      "AGREE": 3371,
      "extraordin": 3372,
      "Northumbria": 3373,
      "occurred": 3374,
      "splashing": 3375,
      "DAMAGES": 3376,
      "contemptuously": 3377,
      "expenses": 3378,
      "uneasily": 3379,
      "ALICE": 3380,
      "BREACH": 3381,
      "Crab": 3382,
      "Croquet": 3383,
      "DRINK": 3384,
      "Defect": 3385,
      "EBOOK": 3386,
      "Fury": 3387,
      "Hole": 3388,
      "IRECT": 3389,
      "Keep": 3390,
      "Mercia": 3391,
      "Morcar": 3392,
      "Nearly": 3393,
      "Plain": 3394,
      "Poor": 3395,
      "Paris": 3396,
      "Prizes": 3397,
      "Party": 3398,
      "Presently": 3399,
      "Redistribut": 3400,
      "START": 3401,
      "Tale": 3402,
      "Terms": 3403,
      "Treacle": 3404,
      "Uglification": 3405,
      "Vanilla": 3406,
      "WONDERLAND": 3407,
      "_it_": 3408,
      "_quite_": 3409,
      "_ever_": 3410,
      "_here_": 3411,
      "_never_": 3412,
      "_Un_important": 3413,
      "_best_": 3414,
      "_mine_": 3415,
      "break": 3416,
      "based": 3417,
      "blasts": 3418,
      "barrowful": 3419,
      "dancing": 3420,
      "drunk": 3421,
      "federal": 3422,
      "fashion": 3423,
      "fountains": 3424,
      "giddy": 3425,
      "lonely": 3426,
      "murder": 3427,
      "milk": 3428,
      "ography": 3429,
      "parchment": 3430,
      "prepare": 3431,
      "rattling": 3432,
      "sensation": 3433,
      "scroll": 3434,
      "snatch": 3435,
      "taste": 3436,
      "taller": 3437,
      "tributions": 3438,
      "heavy": 3439,
      "intellectual": 3440,
      "annoy": 3441,
      "references": 3442,
      "registered": 3443,
      "throat": 3444,
      "thousand": 3445,
      "ennyworth": 3446,
      "assembled": 3447,
      "ashamed": 3448,
      "origin": 3449,
      "ornamented": 3450,
      "meekly": 3451,
      "stirring": 3452,
      "stamping": 3453,
      "struck": 3454,
      "entangled": 3455,
      "entirely": 3456,
      "somersault": 3457,
      "absurd": 3458,
      "neighbour": 3459,
      "coaxing": 3460,
      "pebbles": 3461,
      "railway": 3462,
      "rapidly": 3463,
      "destroy": 3464,
      "cauldron": 3465,
      "concluded": 3466,
      "extremely": 3467,
      "physical": 3468,
      "accordance": 3469,
      "laughed": 3470,
      "proprietary": 3471,
      "cucumber": 3472,
      "archbishop": 3473,
      "underneath": 3474,
      "specified": 3475,
      "CHORUS": 3476,
      "earnestly": 3477,
      "fancied": 3478,
      "triumphantly": 3479,
      "footsteps": 3480,
      "LICENSE": 3481,
      "restrictions": 3482,
      "authority": 3483,
      "employe": 3484,
      "available": 3485,
      "ADVENTURES": 3486,
      "occasion": 3487,
      "beautifully": 3488,
      "DISTRIBUT": 3489,
      "extraordinary": 3490,
      "!)": 3491,
      "\"),": 3492,
      "',": 3493,
      "(\"": 3494,
      "($": 3495,
      ")(": 3496,
      ")—": 3497,
      ",\"": 3498,
      ".\"": 3499,
      ".,": 3500,
      ".]": 3501,
      ".—“": 3502,
      "//": 3503,
      "09": 3504,
      "12": 3505,
      "18": 3506,
      "19": 3507,
      "22": 3508,
      "200": 3509,
      "30": 3510,
      "41": 3511,
      "411": 3512,
      "50": 3513,
      "59": 3514,
      "501": 3515,
      "60": 3516,
      "64": 3517,
      "622": 3518,
      "87": 3519,
      "801": 3520,
      "809": 3521,
      "8411": 3522,
      "91": 3523,
      "://": 3524,
      ";—": 3525,
      "?)": 3526,
      "AV": 3527,
      "Ab": 3528,
      "Am": 3529,
      "Au": 3530,
      "Ahe": 3531,
      "Athe": 3532,
      "Allow": 3533,
      "Aust": 3534,
      "ASE": 3535,
      "ATION": 3536,
      "Bi": 3537,
      "Br": 3538,
      "Bes": 3539,
      "Bir": 3540,
      "Bet": 3541,
      "Back": 3542,
      "Boot": 3543,
      "Bring": 3544,
      "BIT": 3545,
      "Beg": 3546,
      "BILITY": 3547,
      "CR": 3548,
      "Cl": 3549,
      "Cu": 3550,
      "Cer": 3551,
      "Creat": 3552,
      "City": 3553,
      "CLA": 3554,
      "Da": 3555,
      "Di": 3556,
      "Der": 3557,
      "Des": 3558,
      "Dri": 3559,
      "Dist": 3560,
      "Date": 3561,
      "Dear": 3562,
      "Drink": 3563,
      "DON": 3564,
      "DED": 3565,
      "DENT": 3566,
      "DING": 3567,
      "DIRECT": 3568,
      "EG": 3569,
      "EV": 3570,
      "El": 3571,
      "Es": 3572,
      "Even": 3573,
      "EEN": 3574,
      "EIN": 3575,
      "Either": 3576,
      "EAT": 3577,
      "Email": 3578,
      "EART": 3579,
      "Each": 3580,
      "Fen": 3581,
      "Fain": 3582,
      "Fif": 3583,
      "Four": 3584,
      "Fet": 3585,
      "From": 3586,
      "Fort": 3587,
      "FIT": 3588,
      "FOU": 3589,
      "Full": 3590,
      "Frog": 3591,
      "France": 3592,
      "GE": 3593,
      "GH": 3594,
      "Ge": 3595,
      "Gri": 3596,
      "Gra": 3597,
      "Good": 3598,
      "Game": 3599,
      "GEN": 3600,
      "GIVE": 3601,
      "Hj": 3602,
      "Hm": 3603,
      "Hand": 3604,
      "Has": 3605,
      "His": 3606,
      "Had": 3607,
      "Him": 3608,
      "Hard": 3609,
      "Hart": 3610,
      "Half": 3611,
      "HAV": 3612,
      "HEART": 3613,
      "IF": 3614,
      "IR": 3615,
      "Ill": 3616,
      "Ind": 3617,
      "ITH": 3618,
      "Idi": 3619,
      "ION": 3620,
      "IES": 3621,
      "IUM": 3622,
      "IBILITY": 3623,
      "IDENT": 3624,
      "IGH": 3625,
      "Jan": 3626,
      "Jack": 3627,
      "KIND": 3628,
      "KING": 3629,
      "LU": 3630,
      "Le": 3631,
      "Lon": 3632,
      "Look": 3633,
      "Lac": 3634,
      "Lake": 3635,
      "Lau": 3636,
      "Langu": 3637,
      "Luckily": 3638,
      "Mag": 3639,
      "Many": 3640,
      "MER": 3641,
      "Mine": 3642,
      "Mul": 3643,
      "MAR": 3644,
      "Mich": 3645,
      "MED": 3646,
      "MENT": 3647,
      "MAL": 3648,
      "MILL": 3649,
      "ND": 3650,
      "Nu": 3651,
      "Nay": 3652,
      "NER": 3653,
      "Nile": 3654,
      "Nonsense": 3655,
      "NES": 3656,
      "New": 3657,
      "NDA": 3658,
      "NDER": 3659,
      "NEG": 3660,
      "NIUM": 3661,
      "OS": 3662,
      "OW": 3663,
      "Oc": 3664,
      "Or": 3665,
      "Où": 3666,
      "Our": 3667,
      "OTH": 3668,
      "PT": 3669,
      "Pu": 3670,
      "Pin": 3671,
      "PLI": 3672,
      "PAR": 3673,
      "PLA": 3674,
      "PRES": 3675,
      "PLE": 3676,
      "POSE": 3677,
      "Pennyworth": 3678,
      "POS": 3679,
      "Ru": 3680,
      "Run": 3681,
      "Rele": 3682,
      "Reven": 3683,
      "RAP": 3684,
      "RAB": 3685,
      "RIGH": 3686,
      "RPOSE": 3687,
      "SU": 3688,
      "Si": 3689,
      "Sw": 3690,
      "Sit": 3691,
      "Ser": 3692,
      "Sing": 3693,
      "Sent": 3694,
      "Sal": 3695,
      "Sti": 3696,
      "Sha": 3697,
      "Sect": 3698,
      "Same": 3699,
      "Stre": 3700,
      "Still": 3701,
      "Sea": 3702,
      "Stop": 3703,
      "SOU": 3704,
      "SEND": 3705,
      "STRI": 3706,
      "Sounds": 3707,
      "SIBILITY": 3708,
      "Tit": 3709,
      "Ten": 3710,
      "Tut": 3711,
      "Tri": 3712,
      "Tal": 3713,
      "Too": 3714,
      "Till": 3715,
      "Twent": 3716,
      "Tho": 3717,
      "Table": 3718,
      "TAB": 3719,
      "USE": 3720,
      "UAL": 3721,
      "UNDER": 3722,
      "Vol": 3723,
      "Visit": 3724,
      "Wa": 3725,
      "Was": 3726,
      "Wid": 3727,
      "WOR": 3728,
      "WILL": 3729,
      "WITH": 3730,
      "Ze": 3731,
      "_h": 3732,
      "_at": 3733,
      "_and": 3734,
      "_Alice": 3735,
      "_her": 3736,
      "_with": 3737,
      "_no": 3738,
      "_they": 3739,
      "_his": 3740,
      "_beg": 3741,
      "_our": 3742,
      "_some": 3743,
      "_then": 3744,
      "_don": 3745,
      "_It": 3746,
      "_there": 3747,
      "_Turtle": 3748,
      "_began": 3749,
      "_their": 3750,
      "_more": 3751,
      "_him": 3752,
      "_What": 3753,
      "_How": 3754,
      "_She": 3755,
      "_before": 3756,
      "_We": 3757,
      "_pre": 3758,
      "_less": 3759,
      "_took": 3760,
      "_yet": 3761,
      "_sit": 3762,
      "_red": 3763,
      "_something": 3764,
      "_through": 3765,
      "_these": 3766,
      "_please": 3767,
      "_speak": 3768,
      "_myself": 3769,
      "_All": 3770,
      "_outside": 3771,
      "_somebody": 3772,
      "_Are": 3773,
      "_Sto": 3774,
      "_Tis": 3775,
      "_poison": 3776,
      "_somewhere": 3777,
      "_Everybody": 3778,
      "_Twinkle": 3779,
      "_all_": 3780,
      "_little_": 3781,
      "_plenty": 3782,
      "_proves": 3783,
      "_two_": 3784,
      "_curtse": 3785,
      "_fit_": 3786,
      "ald": 3787,
      "ape": 3788,
      "ache": 3789,
      "ause": 3790,
      "afore": 3791,
      "ael": 3792,
      "azing": 3793,
      "amus": 3794,
      "avoid": 3795,
      "bin": 3796,
      "ban": 3797,
      "bar": 3798,
      "ball": 3799,
      "bent": 3800,
      "bal": 3801,
      "bone": 3802,
      "bag": 3803,
      "bill": 3804,
      "bra": 3805,
      "bother": 3806,
      "bree": 3807,
      "bough": 3808,
      "baw": 3809,
      "blad": 3810,
      "bones": 3811,
      "baked": 3812,
      "cli": 3813,
      "cow": 3814,
      "cher": 3815,
      "cent": 3816,
      "cun": 3817,
      "cree": 3818,
      "cure": 3819,
      "cious": 3820,
      "cently": 3821,
      "cred": 3822,
      "craw": 3823,
      "creas": 3824,
      "crawling": 3825,
      "cational": 3826,
      "clinging": 3827,
      "d_": 3828,
      "dr": 3829,
      "dat": 3830,
      "dain": 3831,
      "dun": 3832,
      "dried": 3833,
      "dive": 3834,
      "dded": 3835,
      "dates": 3836,
      "dig": 3837,
      "dile": 3838,
      "ddle": 3839,
      "dau": 3840,
      "dged": 3841,
      "ditions": 3842,
      "dging": 3843,
      "drown": 3844,
      "eh": 3845,
      "eth": 3846,
      "eed": 3847,
      "eld": 3848,
      "epe": 3849,
      "eam": 3850,
      "ement": 3851,
      "eling": 3852,
      "eked": 3853,
      "evid": 3854,
      "email": 3855,
      "fat": 3856,
      "fth": 3857,
      "fid": 3858,
      "fis": 3859,
      "fle": 3860,
      "fry": 3861,
      "fac": 3862,
      "five": 3863,
      "fool": 3864,
      "ffee": 3865,
      "fring": 3866,
      "flying": 3867,
      "fail": 3868,
      "fading": 3869,
      "flinging": 3870,
      "gg": 3871,
      "gn": 3872,
      "gth": 3873,
      "gand": 3874,
      "gher": 3875,
      "gall": 3876,
      "gay": 3877,
      "gain": 3878,
      "gant": 3879,
      "glar": 3880,
      "gled": 3881,
      "gather": 3882,
      "gged": 3883,
      "gross": 3884,
      "gazing": 3885,
      "ht": 3886,
      "hy": 3887,
      "hing": 3888,
      "hor": 3889,
      "hid": 3890,
      "hone": 3891,
      "hide": 3892,
      "hood": 3893,
      "hig": 3894,
      "hush": 3895,
      "ip": 3896,
      "ili": 3897,
      "iver": 3898,
      "ict": 3899,
      "ife": 3900,
      "iling": 3901,
      "ilt": 3902,
      "iform": 3903,
      "ized": 3904,
      "iod": 3905,
      "iotic": 3906,
      "jour": 3907,
      "jell": 3908,
      "journ": 3909,
      "ker": 3910,
      "knu": 3911,
      "lin": 3912,
      "lou": 3913,
      "len": 3914,
      "lot": 3915,
      "lve": 3916,
      "lation": 3917,
      "lam": 3918,
      "lous": 3919,
      "lark": 3920,
      "lence": 3921,
      "lated": 3922,
      "lull": 3923,
      "leng": 3924,
      "langu": 3925,
      "luckily": 3926,
      "mand": 3927,
      "mas": 3928,
      "mst": 3929,
      "mly": 3930,
      "mot": 3931,
      "mall": 3932,
      "mag": 3933,
      "mation": 3934,
      "mpl": 3935,
      "monly": 3936,
      "mense": 3937,
      "mily": 3938,
      "mmar": 3939,
      "nly": 3940,
      "nast": 3941,
      "named": 3942,
      "obe": 3943,
      "othing": 3944,
      "option": 3945,
      "ointment": 3946,
      "pow": 3947,
      "pher": 3948,
      "ppo": 3949,
      "pink": 3950,
      "pour": 3951,
      "pation": 3952,
      "ppl": 3953,
      "pant": 3954,
      "pread": 3955,
      "pace": 3956,
      "pron": 3957,
      "pine": 3958,
      "ppers": 3959,
      "pati": 3960,
      "pliance": 3961,
      "pages": 3962,
      "poured": 3963,
      "pounds": 3964,
      "rh": 3965,
      "rm": 3966,
      "ror": 3967,
      "rus": 3968,
      "ration": 3969,
      "rist": 3970,
      "rant": 3971,
      "rise": 3972,
      "rors": 3973,
      "rising": 3974,
      "roughly": 3975,
      "ritated": 3976,
      "rises": 3977,
      "rrh": 3978,
      "sy": 3979,
      "son": 3980,
      "sco": 3981,
      "sue": 3982,
      "sink": 3983,
      "swe": 3984,
      "sits": 3985,
      "send": 3986,
      "sence": 3987,
      "scr": 3988,
      "sses": 3989,
      "slight": 3990,
      "scra": 3991,
      "scribe": 3992,
      "t_": 3993,
      "tit": 3994,
      "ton": 3995,
      "tid": 3996,
      "tut": 3997,
      "tun": 3998,
      "tink": 3999,
      "twork": 4000,
      "tide": 4001,
      "ture": 4002,
      "tart": 4003,
      "txt": 4004,
      "tons": 4005,
      "tps": 4006,
      "tching": 4007,
      "uct": 4008,
      "ually": 4009,
      "uary": 4010,
      "uster": 4011,
      "uced": 4012,
      "umbled": 4013,
      "vy": 4014,
      "vas": 4015,
      "vir": 4016,
      "vag": 4017,
      "vour": 4018,
      "vive": 4019,
      "vine": 4020,
      "vious": 4021,
      "vul": 4022,
      "vote": 4023,
      "wri": 4024,
      "wra": 4025,
      "ward": 4026,
      "winter": 4027,
      "wider": 4028,
      "wings": 4029,
      "wides": 4030,
      "wife": 4031,
      "xim": 4032,
      "xteenth": 4033,
      "ye": 4034,
      "yly": 4035,
      "yes": 4036,
      "yard": 4037,
      "yel": 4038,
      "yards": 4039,
      "yell": 4040,
      "ymous": 4041,
      "zag": 4042,
      "zig": 4043,
      "zily": 4044,
      "zip": 4045,
      "—(": 4046,
      "—]": 4047,
      "‘’": 4048,
      "’?”": 4049,
      "”)": 4050,
      "”,": 4051,
      "”;": 4052,
      "”—": 4053,
      "hest": 4054,
      "heap": 4055,
      "hearts": 4056,
      "heels": 4057,
      "theless": 4058,
      "iny": 4059,
      "ined": 4060,
      "inso": 4061,
      "inion": 4062,
      "inqu": 4063,
      "inju": 4064,
      "inac": 4065,
      "incl": 4066,
      "inside": 4067,
      "incess": 4068,
      "inquire": 4069,
      "inwards": 4070,
      "insult": 4071,
      "incomplete": 4072,
      "increas": 4073,
      "infring": 4074,
      "ouched": 4075,
      "anter": 4076,
      "anca": 4077,
      "anci": 4078,
      "ancial": 4079,
      "anized": 4080,
      "itic": 4081,
      "itable": 4082,
      "er_": 4083,
      "erved": 4084,
      "erfully": 4085,
      "errors": 4086,
      "ath": 4087,
      "ating": 4088,
      "ator": 4089,
      "atte": 4090,
      "atta": 4091,
      "athi": 4092,
      "atching": 4093,
      "ony": 4094,
      "onds": 4095,
      "onions": 4096,
      "reed": 4097,
      "resh": 4098,
      "reti": 4099,
      "reco": 4100,
      "reds": 4101,
      "request": 4102,
      "returning": 4103,
      "remedi": 4104,
      "redistributing": 4105,
      "redistribution": 4106,
      "rearing": 4107,
      "redistribute": 4108,
      "reeds": 4109,
      "remove": 4110,
      "result": 4111,
      "resour": 4112,
      "reminding": 4113,
      "recently": 4114,
      "ingle": 4115,
      "ingly": 4116,
      "tori": 4117,
      "toss": 4118,
      "tober": 4119,
      "toast": 4120,
      "today": 4121,
      "tops": 4122,
      "tomor": 4123,
      "towards": 4124,
      "toys": 4125,
      "toffee": 4126,
      "torm": 4127,
      "thin": 4128,
      "thur": 4129,
      "thir": 4130,
      "thday": 4131,
      "thru": 4132,
      "thunder": 4133,
      "thick": 4134,
      "thunders": 4135,
      "edition": 4136,
      "andy": 4137,
      "andum": 4138,
      "ening": 4139,
      "enor": 4140,
      "enfor": 4141,
      "endid": 4142,
      "ensur": 4143,
      "enjo": 4144,
      "enced": 4145,
      "engra": 4146,
      "ensed": 4147,
      "encourage": 4148,
      "asis": 4149,
      "ases": 4150,
      "aside": 4151,
      "asure": 4152,
      "asped": 4153,
      "orting": 4154,
      "orant": 4155,
      "ll_": 4156,
      "lls": 4157,
      "llar": 4158,
      "cease": 4159,
      "ceful": 4160,
      "cepan": 4161,
      "ceability": 4162,
      "ceiling": 4163,
      "ids": 4164,
      "idity": 4165,
      "idiotic": 4166,
      "ofread": 4167,
      "ofess": 4168,
      "issi": 4169,
      "isions": 4170,
      "arly": 4171,
      "arri": 4172,
      "armed": 4173,
      "arru": 4174,
      "arise": 4175,
      "argue": 4176,
      "arthru": 4177,
      "ley": 4178,
      "lead": 4179,
      "lest": 4180,
      "leant": 4181,
      "leap": 4182,
      "leading": 4183,
      "seld": 4184,
      "seven": 4185,
      "seated": 4186,
      "secut": 4187,
      "secre": 4188,
      "secure": 4189,
      "seaside": 4190,
      "lia": 4191,
      "lip": 4192,
      "liest": 4193,
      "lips": 4194,
      "likes": 4195,
      "libr": 4196,
      "licking": 4197,
      "limbs": 4198,
      "ligently": 4199,
      "save": 4200,
      "saves": 4201,
      "owed": 4202,
      "sheep": 4203,
      "shepher": 4204,
      "you_": 4205,
      "bee": 4206,
      "belo": 4207,
      "belt": 4208,
      "beak": 4209,
      "becoming": 4210,
      "belled": 4211,
      "bells": 4212,
      "meat": 4213,
      "meal": 4214,
      "metic": 4215,
      "measure": 4216,
      "ads": 4217,
      "ades": 4218,
      "adding": 4219,
      "additions": 4220,
      "adict": 4221,
      "adjourn": 4222,
      "adoption": 4223,
      "star": 4224,
      "stal": 4225,
      "stif": 4226,
      "stard": 4227,
      "station": 4228,
      "staf": 4229,
      "stren": 4230,
      "string": 4231,
      "stacle": 4232,
      "stret": 4233,
      "stead": 4234,
      "steam": 4235,
      "choo": 4236,
      "chry": 4237,
      "chine": 4238,
      "chair": 4239,
      "chop": 4240,
      "choose": 4241,
      "chuck": 4242,
      "chanced": 4243,
      "chatte": 4244,
      "waste": 4245,
      "vern": 4246,
      "vert": 4247,
      "lding": 4248,
      "ldly": 4249,
      "ghing": 4250,
      "ghthand": 4251,
      "espe": 4252,
      "rock": 4253,
      "rope": 4254,
      "roast": 4255,
      "roared": 4256,
      "rocket": 4257,
      "roach": 4258,
      "thatched": 4259,
      "entrance": 4260,
      "sob": 4261,
      "solid": 4262,
      "sobbed": 4263,
      "soothing": 4264,
      "whistling": 4265,
      "!”)": 4266,
      "rich": 4267,
      "riper": 4268,
      "ribly": 4269,
      "riotic": 4270,
      "rippl": 4271,
      "righthand": 4272,
      "wits": 4273,
      "outdated": 4274,
      "ve_": 4275,
      "veget": 4276,
      "velve": 4277,
      "aled": 4278,
      "aland": 4279,
      "alidity": 4280,
      "alarmed": 4281,
      "ghter": 4282,
      "oomily": 4283,
      "urry": 4284,
      "urried": 4285,
      "urpation": 4286,
      "ionately": 4287,
      "tered": 4288,
      "termine": 4289,
      "terbur": 4290,
      "terrier": 4291,
      "terror": 4292,
      "terribly": 4293,
      "ford": 4294,
      "fork": 4295,
      "formed": 4296,
      "forwards": 4297,
      "absence": 4298,
      "ction": 4299,
      "getic": 4300,
      "Their": 4301,
      "shif": 4302,
      "shark": 4303,
      "shade": 4304,
      "shake": 4305,
      "shining": 4306,
      "shape": 4307,
      "shiver": 4308,
      "shyly": 4309,
      "shiny": 4310,
      "shingle": 4311,
      "upid": 4312,
      "upright": 4313,
      "upstairs": 4314,
      "updated": 4315,
      "oneself": 4316,
      "nel": 4317,
      "necess": 4318,
      "needs": 4319,
      "network": 4320,
      "notifies": 4321,
      ".”)": 4322,
      "irt": 4323,
      "irited": 4324,
      "irons": 4325,
      "irritated": 4326,
      "buttons": 4327,
      "agent": 4328,
      "aggled": 4329,
      "agony": 4330,
      "agreed": 4331,
      "ckling": 4332,
      "ckled": 4333,
      "ckles": 4334,
      "ckrrh": 4335,
      "doze": 4336,
      "dozing": 4337,
      "dodged": 4338,
      "tie": 4339,
      "tier": 4340,
      "tied": 4341,
      "tight": 4342,
      "tipped": 4343,
      "cold": 4344,
      "coast": 4345,
      "codes": 4346,
      "codile": 4347,
      "?”,": 4348,
      "feared": 4349,
      "worm": 4350,
      "worry": 4351,
      "worried": 4352,
      "ification": 4353,
      "noises": 4354,
      "nodded": 4355,
      "impo": 4356,
      "imper": 4357,
      "imming": 4358,
      "imitated": 4359,
      "imagine": 4360,
      "immense": 4361,
      "peat": 4362,
      "peare": 4363,
      "pegs": 4364,
      "peering": 4365,
      "moon": 4366,
      "momile": 4367,
      "muddle": 4368,
      "mulous": 4369,
      "hiss": 4370,
      "histori": 4371,
      "rapped": 4372,
      "raising": 4373,
      "ralia": 4374,
      "deta": 4375,
      "delet": 4376,
      "demn": 4377,
      "delay": 4378,
      "deepe": 4379,
      "demand": 4380,
      "death": 4381,
      "determine": 4382,
      "pop": 4383,
      "pope": 4384,
      "poky": 4385,
      "posal": 4386,
      "pointment": 4387,
      "poker": 4388,
      "teap": 4389,
      "teeth": 4390,
      "teases": 4391,
      "ung": 4392,
      "unlo": 4393,
      "unjust": 4394,
      "unable": 4395,
      "unwill": 4396,
      "uncor": 4397,
      "unlink": 4398,
      "unprotected": 4399,
      "unsolic": 4400,
      "uncivil": 4401,
      "untwist": 4402,
      "unusually": 4403,
      "uniform": 4404,
      "unenfor": 4405,
      "wheels": 4406,
      "seeing": 4407,
      "begged": 4408,
      "downlo": 4409,
      "downwards": 4410,
      "downward": 4411,
      "inking": 4412,
      "inkstand": 4413,
      "weren": 4414,
      "web": 4415,
      "wept": 4416,
      "wearily": 4417,
      "ourite": 4418,
      "ourselves": 4419,
      "known": 4420,
      "pering": 4421,
      "perman": 4422,
      "pertext": 4423,
      "period": 4424,
      "performed": 4425,
      "usurpation": 4426,
      "cackled": 4427,
      "camomile": 4428,
      "capering": 4429,
      "goals": 4430,
      "govern": 4431,
      "amonds": 4432,
      "cheap": 4433,
      "cheated": 4434,
      "cheek": 4435,
      "cheerfully": 4436,
      "Produ": 4437,
      "contr": 4438,
      "conquest": 4439,
      "consent": 4440,
      "condu": 4441,
      "conger": 4442,
      "consult": 4443,
      "content": 4444,
      "contributions": 4445,
      "convert": 4446,
      "condemn": 4447,
      "folding": 4448,
      "office": 4449,
      "offers": 4450,
      "someone": 4451,
      "somehow": 4452,
      "extr": 4453,
      "exact": 4454,
      "expor": 4455,
      "exclusion": 4456,
      "exclam": 4457,
      "indirect": 4458,
      "ics": 4459,
      "ically": 4460,
      "icul": 4461,
      "plac": 4462,
      "plause": 4463,
      "phasis": 4464,
      "canvas": 4465,
      "Queens": 4466,
      "ets": 4467,
      "ety": 4468,
      "lose": 4469,
      "lock": 4470,
      "loving": 4471,
      "losing": 4472,
      "locked": 4473,
      "locations": 4474,
      "lodging": 4475,
      "rightly": 4476,
      "geted": 4477,
      "bitter": 4478,
      "donation": 4479,
      "donors": 4480,
      "grate": 4481,
      "group": 4482,
      "grumbled": 4483,
      "istance": 4484,
      "whiles": 4485,
      "fumbled": 4486,
      "tales": 4487,
      "pless": 4488,
      "jug": 4489,
      "sie": 4490,
      "sizes": 4491,
      "boon": 4492,
      "bore": 4493,
      "board": 4494,
      "boldly": 4495,
      "Kings": 4496,
      "ppi": 4497,
      "voking": 4498,
      "tood": 4499,
      "maid": 4500,
      "maps": 4501,
      "machin": 4502,
      "maxim": 4503,
      "machine": 4504,
      "idest": 4505,
      "howled": 4506,
      "Catch": 4507,
      "affect": 4508,
      "affair": 4509,
      "afford": 4510,
      "dered": 4511,
      "derive": 4512,
      "uredly": 4513,
      "ishing": 4514,
      "ishly": 4515,
      "acter": 4516,
      "accus": 4517,
      "accusto": 4518,
      "accep": 4519,
      "laught": 4520,
      "lazy": 4521,
      "lazily": 4522,
      "labelled": 4523,
      "readily": 4524,
      "ended": 4525,
      "theirs": 4526,
      "pigeon": 4527,
      "pilation": 4528,
      "hollow": 4529,
      "holid": 4530,
      "hoped": 4531,
      "proble": 4532,
      "prohi": 4533,
      "proofread": 4534,
      "prosecut": 4535,
      "proposal": 4536,
      "provoking": 4537,
      "turkey": 4538,
      "commer": 4539,
      "compressed": 4540,
      "common": 4541,
      "comfortable": 4542,
      "committed": 4543,
      "commot": 4544,
      "compilation": 4545,
      "nevertheless": 4546,
      "justice": 4547,
      "forepaws": 4548,
      "venth": 4549,
      "cumst": 4550,
      "custard": 4551,
      "mineral": 4552,
      "pyright": 4553,
      "overhead": 4554,
      "overcome": 4555,
      "pty": 4556,
      "hedges": 4557,
      "backs": 4558,
      "mans": 4559,
      "manager": 4560,
      "manners": 4561,
      "managing": 4562,
      "represent": 4563,
      "cattle": 4564,
      "caterpillar": 4565,
      "eyed": 4566,
      "eyel": 4567,
      "lower": 4568,
      "lowing": 4569,
      "anged": 4570,
      "handsome": 4571,
      "handwriting": 4572,
      "paused": 4573,
      "papers": 4574,
      "ruden": 4575,
      "rumbling": 4576,
      "rushed": 4577,
      "rubbed": 4578,
      "West": 4579,
      "ils": 4580,
      "Therefore": 4581,
      "Thus": 4582,
      "Though": 4583,
      "Thinking": 4584,
      "deduct": 4585,
      "largest": 4586,
      "Soon": 4587,
      "Soles": 4588,
      "elegant": 4589,
      "eleventh": 4590,
      "doorway": 4591,
      "print": 4592,
      "speed": 4593,
      "spell": 4594,
      "settle": 4595,
      "setting": 4596,
      "glanced": 4597,
      "gloomily": 4598,
      "juror": 4599,
      "tray": 4600,
      "taining": 4601,
      "tainly": 4602,
      "CHAN": 4603,
      "apple": 4604,
      "appointment": 4605,
      "applause": 4606,
      "growling": 4607,
      "growled": 4608,
      "growls": 4609,
      "Hearthru": 4610,
      "Heads": 4611,
      "mble": 4612,
      "mayn": 4613,
      "maybe": 4614,
      "press": 4615,
      "preted": 4616,
      "pressing": 4617,
      "preser": 4618,
      "pretexts": 4619,
      "previous": 4620,
      "thank": 4621,
      "thanked": 4622,
      "oldest": 4623,
      "wait": 4624,
      "assics": 4625,
      "assistance": 4626,
      "wondered": 4627,
      "haste": 4628,
      "ated_": 4629,
      "meanwhile": 4630,
      "clasped": 4631,
      "cutting": 4632,
      "denies": 4633,
      "denial": 4634,
      "denying": 4635,
      "lessen": 4636,
      "bleeds": 4637,
      "disk": 4638,
      "dismay": 4639,
      "disagree": 4640,
      "disgu": 4641,
      "discontin": 4642,
      "discover": 4643,
      "discovered": 4644,
      "disobe": 4645,
      "disappointment": 4646,
      "finds": 4647,
      "gard_": 4648,
      "oppos": 4649,
      "opinion": 4650,
      "ranties": 4651,
      "side_": 4652,
      "tremulous": 4653,
      "tremble": 4654,
      "Collar": 4655,
      "Copyright": 4656,
      "Coils": 4657,
      "guard": 4658,
      "guilt": 4659,
      "whereupon": 4660,
      "garden_": 4661,
      "implied": 4662,
      "impati": 4663,
      "closer": 4664,
      "fanning": 4665,
      "fanned": 4666,
      "walrus": 4667,
      "childhood": 4668,
      "actually": 4669,
      "cially": 4670,
      "calling": 4671,
      "dressed": 4672,
      "push": 4673,
      "puff": 4674,
      "pulled": 4675,
      "pulling": 4676,
      "partner": 4677,
      "partners": 4678,
      "sentenced": 4679,
      "supple": 4680,
      "ulties": 4681,
      "feebly": 4682,
      "played": 4683,
      "Invol": 4684,
      "crocodile": 4685,
      "eats": 4686,
      "eating": 4687,
      "eaten": 4688,
      "houses": 4689,
      "housemaid": 4690,
      "kespeare": 4691,
      "spoken": 4692,
      "hearth": 4693,
      "interpreted": 4694,
      "curiouser": 4695,
      "remembering": 4696,
      "ENTI": 4697,
      "ENNIUM": 4698,
      "financial": 4699,
      "hippo": 4700,
      "stole": 4701,
      "stored": 4702,
      "stocking": 4703,
      "stopping": 4704,
      "waters": 4705,
      "teaching": 4706,
      "execute": 4707,
      "executes": 4708,
      "Stand": 4709,
      "Stuff": 4710,
      "Stupid": 4711,
      "THING": 4712,
      "THOSE": 4713,
      "Unless": 4714,
      "ddenly": 4715,
      "morsel": 4716,
      "reduced": 4717,
      "throne": 4718,
      "thrown": 4719,
      "lication": 4720,
      "licensed": 4721,
      "court_": 4722,
      "appears": 4723,
      "appealed": 4724,
      "oblong": 4725,
      "obsole": 4726,
      "obstacle": 4727,
      "rent": 4728,
      "renamed": 4729,
      "Whoever": 4730,
      "placement": 4731,
      "couple": 4732,
      "couples": 4733,
      "survive": 4734,
      "tries": 4735,
      "tricks": 4736,
      "trickling": 4737,
      "indemn": 4738,
      "energetic": 4739,
      "persons": 4740,
      "clubs": 4741,
      "Arith": 4742,
      "Arthur": 4743,
      "Dinn": 4744,
      "Herald": 4745,
      "ORAN": 4746,
      "curly": 4747,
      "curate": 4748,
      "curtain": 4749,
      "curving": 4750,
      "curls": 4751,
      "currant": 4752,
      "current": 4753,
      "dued": 4754,
      "duck": 4755,
      "flown": 4756,
      "flutter": 4757,
      "flashed": 4758,
      "fluster": 4759,
      "flurry": 4760,
      "flung": 4761,
      "joys": 4762,
      "jogged": 4763,
      "listened": 4764,
      "tinent": 4765,
      "choke": 4766,
      "choking": 4767,
      "footmen": 4768,
      "quiver": 4769,
      "pleasing": 4770,
      "pleases": 4771,
      "pleasanter": 4772,
      "LIGEN": 4773,
      "READ": 4774,
      "REFU": 4775,
      "REMED": 4776,
      "REPLA": 4777,
      "farther": 4778,
      "helpless": 4779,
      "standing": 4780,
      "company": 4781,
      "happening": 4782,
      "closely": 4783,
      "puzzle": 4784,
      "answers": 4785,
      "Soup_": 4786,
      "games": 4787,
      "rupt": 4788,
      "slug": 4789,
      "include": 4790,
      "includes": 4791,
      "reasons": 4792,
      "sternly": 4793,
      "whistle": 4794,
      "whispers": 4795,
      "forty": 4796,
      "fortably": 4797,
      "shrimp": 4798,
      "shrieked": 4799,
      "queerest": 4800,
      "helped": 4801,
      "Antip": 4802,
      "birthday": 4803,
      "clapping": 4804,
      "die": 4805,
      "died": 4806,
      "dibly": 4807,
      "diligently": 4808,
      "diamonds": 4809,
      "globe": 4810,
      "minded": 4811,
      "askance": 4812,
      "version": 4813,
      "shock": 4814,
      "buttered": 4815,
      "buttercup": 4816,
      "butterfly": 4817,
      "accessed": 4818,
      "accessible": 4819,
      "hurrying": 4820,
      "interrupt": 4821,
      "crab": 4822,
      "crashed": 4823,
      "crouched": 4824,
      "critic": 4825,
      "carrier": 4826,
      "double": 4827,
      "maintaining": 4828,
      "passing": 4829,
      "organized": 4830,
      "charities": 4831,
      "charitable": 4832,
      "character": 4833,
      "soldier": 4834,
      "submitted": 4835,
      "subscribe": 4836,
      "subdued": 4837,
      "grins": 4838,
      "grinning": 4839,
      "boxed": 4840,
      "learned": 4841,
      "trials": 4842,
      "listeners": 4843,
      "ARK": 4844,
      "creation": 4845,
      "crept": 4846,
      "corpor": 4847,
      "corners": 4848,
      "corrupt": 4849,
      "fury": 4850,
      "frighten": 4851,
      "grazed": 4852,
      "gravy": 4853,
      "graceful": 4854,
      "stool": 4855,
      "wore": 4856,
      "woke": 4857,
      "severity": 4858,
      "believed": 4859,
      "advice": 4860,
      "advise": 4861,
      "twinkled": 4862,
      "dreamy": 4863,
      "dreaming": 4864,
      "dreamed": 4865,
      "counting": 4866,
      "countries": 4867,
      "doubling": 4868,
      "doubled": 4869,
      "opportunities": 4870,
      "Ada": 4871,
      "Addition": 4872,
      "Wouldn": 4873,
      "audibly": 4874,
      "awfully": 4875,
      "brain": 4876,
      "brass": 4877,
      "bristling": 4878,
      "bowing": 4879,
      "brother": 4880,
      "descri": 4881,
      "despair": 4882,
      "deserved": 4883,
      "fourth": 4884,
      "spot": 4885,
      "spite": 4886,
      "spreading": 4887,
      "sprawling": 4888,
      "spades": 4889,
      "spirited": 4890,
      "ustration": 4891,
      "wooden": 4892,
      "kettle": 4893,
      "noticing": 4894,
      "provision": 4895,
      "provisions": 4896,
      "protection": 4897,
      "morals": 4898,
      "explained": 4899,
      "sneezed": 4900,
      "receiving": 4901,
      "ITION": 4902,
      "_yours_": 4903,
      "bathing": 4904,
      "drawing": 4905,
      "lately": 4906,
      "merrily": 4907,
      "natured": 4908,
      "naturedly": 4909,
      "ppery": 4910,
      "promise": 4911,
      "promised": 4912,
      "promising": 4913,
      "statements": 4914,
      "officer": 4915,
      "fancying": 4916,
      "subjects": 4917,
      "violence": 4918,
      "violates": 4919,
      "England": 4920,
      "AGRAP": 4921,
      "EDITION": 4922,
      "Like": 4923,
      "Read": 4924,
      "Refund": 4925,
      "Reeling": 4926,
      "Repeat": 4927,
      "Replacement": 4928,
      "SEQU": 4929,
      "_whatever": 4930,
      "burst": 4931,
      "burning": 4932,
      "bursting": 4933,
      "cries": 4934,
      "cription": 4935,
      "drop": 4936,
      "dropping": 4937,
      "egg": 4938,
      "emphasis": 4939,
      "empty": 4940,
      "screaming": 4941,
      "tumbled": 4942,
      "tulip": 4943,
      "types": 4944,
      "attends": 4945,
      "attended": 4946,
      "leaving": 4947,
      "stupidest": 4948,
      "pocket_": 4949,
      "uncommon": 4950,
      "uncommonly": 4951,
      "uncomfortably": 4952,
      "taxes": 4953,
      "processing": 4954,
      "processions": 4955,
      "pairs": 4956,
      "particularly": 4957,
      "difficulties": 4958,
      "shoes_": 4959,
      "pardoned": 4960,
      "schoolroom": 4961,
      "chimneys": 4962,
      "CEMENT": 4963,
      "CEPT": 4964,
      "Quick": 4965,
      "TICE": 4966,
      "apply": 4967,
      "approach": 4968,
      "appishly": 4969,
      "daresay": 4970,
      "fixed": 4971,
      "field": 4972,
      "grew": 4973,
      "grey": 4974,
      "ladder": 4975,
      "prize": 4976,
      "ridge": 4977,
      "riddle": 4978,
      "ridges": 4979,
      "ridicul": 4980,
      "rabbits": 4981,
      "snout": 4982,
      "snorting": 4983,
      "snappishly": 4984,
      "sorry": 4985,
      "trusts": 4986,
      "ithing": 4987,
      "required": 4988,
      "argued": 4989,
      "arguments": 4990,
      "stays": 4991,
      "royalty": 4992,
      "unteer": 4993,
      "welcome": 4994,
      "extent": 4995,
      "love_": 4996,
      "loveliest": 4997,
      "volunteer": 4998,
      "picture": 4999,
      "pictured": 5000,
      "hopeless": 5001,
      "hopeful": 5002,
      "paperwork": 5003,
      "presented": 5004,
      "displayed": 5005,
      "ignorant": 5006,
      "walks": 5007,
      "finishing": 5008,
      "swim_": 5009,
      "swamp": 5010,
      "shrieks": 5011,
      "stupidly": 5012,
      "simpleton": 5013,
      "!’?”": 5014,
      "ADE": 5015,
      "ADEM": 5016,
      "Behead": 5017,
      "Before": 5018,
      "Because": 5019,
      "Contact": 5020,
      "Content": 5021,
      "Contributions": 5022,
      "Mission": 5023,
      "Mississi": 5024,
      "NOTICE": 5025,
      "Normans": 5026,
      "TRACT": 5027,
      "TRADEM": 5028,
      "clean": 5029,
      "cleared": 5030,
      "crust": 5031,
      "clearer": 5032,
      "dinn": 5033,
      "drinking": 5034,
      "fireplace": 5035,
      "figures": 5036,
      "knock": 5037,
      "knocked": 5038,
      "pitied": 5039,
      "purple": 5040,
      "splashed": 5041,
      "splendid": 5042,
      "squeaked": 5043,
      "twelfth": 5044,
      "vanishing": 5045,
      "wander": 5046,
      "invalidity": 5047,
      "legally": 5048,
      "lifted": 5049,
      "address": 5050,
      "addressing": 5051,
      "addresses": 5052,
      "sticks": 5053,
      "fellows": 5054,
      "pointed": 5055,
      "performances": 5056,
      "checks": 5057,
      "indignant": 5058,
      "planning": 5059,
      "plainly": 5060,
      "grunt": 5061,
      "judging": 5062,
      "produce": 5063,
      "producing": 5064,
      "production": 5065,
      "letters": 5066,
      "explanations": 5067,
      "twinkle_": 5068,
      "sorrows": 5069,
      "PROVI": 5070,
      "000": 5071,
      "Canary": 5072,
      "Canterbur": 5073,
      "FORE": 5074,
      "Profess": 5075,
      "Seals": 5076,
      "Shy": 5077,
      "Shan": 5078,
      "Shark": 5079,
      "_You_": 5080,
      "axis": 5081,
      "axes": 5082,
      "banks": 5083,
      "damage": 5084,
      "damaged": 5085,
      "darkness": 5086,
      "fitted": 5087,
      "fills": 5088,
      "flock": 5089,
      "flame": 5090,
      "flapper": 5091,
      "flappers": 5092,
      "flavour": 5093,
      "fairy": 5094,
      "fairly": 5095,
      "lating": 5096,
      "pattern": 5097,
      "seriously": 5098,
      "series": 5099,
      "slippery": 5100,
      "tastes": 5101,
      "reality": 5102,
      "returns": 5103,
      "isitively": 5104,
      "beheading": 5105,
      "meeting": 5106,
      "solicitation": 5107,
      "altered": 5108,
      "alteration": 5109,
      "upsetting": 5110,
      "tiplication": 5111,
      "peeping": 5112,
      "weeks": 5113,
      "quarrel": 5114,
      "quarrelled": 5115,
      "expend": 5116,
      "expected": 5117,
      "derived": 5118,
      "acceptance": 5119,
      "hoarsely": 5120,
      "Somebody": 5121,
      "elbows": 5122,
      "settling": 5123,
      "true_": 5124,
      "pretend": 5125,
      "pretending": 5126,
      "pretty": 5127,
      "prettier": 5128,
      "disclaimers": 5129,
      "crossly": 5130,
      "appearance": 5131,
      "quicker": 5132,
      "ANYTHING": 5133,
      "fortunately": 5134,
      "beauti": 5135,
      "beautify": 5136,
      "passionate": 5137,
      "straightened": 5138,
      "straightening": 5139,
      "telescopes": 5140,
      "2020": 5141,
      "Change": 5142,
      "Chorus": 5143,
      "Christ": 5144,
      "DISCLA": 5145,
      "EMENT": 5146,
      "EMNIT": 5147,
      "Edgar": 5148,
      "LAF": 5149,
      "Latin": 5150,
      "Maybe": 5151,
      "Suppress": 5152,
      "Special": 5153,
      "Updated": 5154,
      "barking": 5155,
      "blows": 5156,
      "branch": 5157,
      "calmly": 5158,
      "drive": 5159,
      "driest": 5160,
      "dripping": 5161,
      "eels": 5162,
      "fighting": 5163,
      "frontis": 5164,
      "humble": 5165,
      "ieth": 5166,
      "kills": 5167,
      "killing": 5168,
      "mischief": 5169,
      "nonproprietary": 5170,
      "nonymous": 5171,
      "oyster": 5172,
      "pinch": 5173,
      "paint": 5174,
      "punished": 5175,
      "punching": 5176,
      "rats": 5177,
      "rattle": 5178,
      "skurried": 5179,
      "skirt": 5180,
      "skimming": 5181,
      "smoke": 5182,
      "twentieth": 5183,
      "treated": 5184,
      "treatment": 5185,
      "ying_": 5186,
      "“‘—": 5187,
      "ounced": 5188,
      "attempts": 5189,
      "attempted": 5190,
      "regulating": 5191,
      "relieved": 5192,
      "respectable": 5193,
      "respectful": 5194,
      "engine": 5195,
      "engaged": 5196,
      "encouraged": 5197,
      "salis": 5198,
      "salmon": 5199,
      "saucer": 5200,
      "saucep": 5201,
      "saucepan": 5202,
      "riouser": 5203,
      "raction": 5204,
      "declared": 5205,
      "positively": 5206,
      "containing": 5207,
      "examining": 5208,
      "sixpence": 5209,
      "accounting": 5210,
      "swallowing": 5211,
      "swallowed": 5212,
      "INDIRECT": 5213,
      "INDEMNIT": 5214,
      "signify": 5215,
      "signifies": 5216,
      "promotion": 5217,
      "introduced": 5218,
      "AGREEMENT": 5219,
      "burnt": 5220,
      "washing_": 5221,
      "DAMAGE": 5222,
      "pencils": 5223,
      "uneasy": 5224,
      "accidentally": 5225,
      "1500": 5226,
      "1541": 5227,
      "Alas": 5228,
      "Always": 5229,
      "ACTUAL": 5230,
      "BEFORE": 5231,
      "Coming": 5232,
      "Compliance": 5233,
      "CONSEQU": 5234,
      "CONTRACT": 5235,
      "EXPRES": 5236,
      "EXCEPT": 5237,
      "IMER": 5238,
      "IMPLI": 5239,
      "Imagine": 5240,
      "Improve": 5241,
      "Lastly": 5242,
      "NITIVE": 5243,
      "PGLAF": 5244,
      "PURPOSE": 5245,
      "PUNITIVE": 5246,
      "QUEEN": 5247,
      "Such": 5248,
      "Suddenly": 5249,
      "Write": 5250,
      "Writhing": 5251,
      "_in_": 5252,
      "_inside_": 5253,
      "_said_": 5254,
      "blue": 5255,
      "blown": 5256,
      "blame": 5257,
      "blacking": 5258,
      "brushing": 5259,
      "circle": 5260,
      "circumst": 5261,
      "crazy": 5262,
      "cardboard": 5263,
      "cartwheels": 5264,
      "daisy": 5265,
      "daisies": 5266,
      "faint": 5267,
      "faintly": 5268,
      "fifth": 5269,
      "fifteen": 5270,
      "frame": 5271,
      "frames": 5272,
      "family": 5273,
      "famili": 5274,
      "farmer": 5275,
      "favoured": 5276,
      "favourite": 5277,
      "hatching": 5278,
      "hatters": 5279,
      "hundred": 5280,
      "hundreds": 5281,
      "harmless": 5282,
      "knelt": 5283,
      "kneel": 5284,
      "kissed": 5285,
      "marched": 5286,
      "mournful": 5287,
      "mournfully": 5288,
      "odd": 5289,
      "patted": 5290,
      "patriotic": 5291,
      "potamus": 5292,
      "piteous": 5293,
      "practice": 5294,
      "practically": 5295,
      "sands": 5296,
      "soft": 5297,
      "softly": 5298,
      "scale": 5299,
      "scaly": 5300,
      "touch": 5301,
      "tougher": 5302,
      "traps": 5303,
      "trampl": 5304,
      "warning": 5305,
      "warranties": 5306,
      "wags": 5307,
      "invented": 5308,
      "refused": 5309,
      "refresh": 5310,
      "educations": 5311,
      "educational": 5312,
      "identify": 5313,
      "identification": 5314,
      "array": 5315,
      "arranged": 5316,
      "shedding": 5317,
      "memory": 5318,
      "memorandum": 5319,
      "method": 5320,
      "methods": 5321,
      "stingy": 5322,
      "chains": 5323,
      "shilling": 5324,
      "shillings": 5325,
      "feathers": 5326,
      "modern": 5327,
      "moderate": 5328,
      "modified": 5329,
      "modification": 5330,
      "muscular": 5331,
      "ravens": 5332,
      "exists": 5333,
      "existence": 5334,
      "expressing": 5335,
      "expression": 5336,
      "indicate": 5337,
      "indicating": 5338,
      "granted": 5339,
      "furiously": 5340,
      "laughing": 5341,
      "comfortably": 5342,
      "complaining": 5343,
      "complained": 5344,
      "completely": 5345,
      "undoing": 5346,
      "understood": 5347,
      "reports": 5348,
      "reported": 5349,
      "rustling": 5350,
      "rustled": 5351,
      "profit": 5352,
      "profits": 5353,
      "transcribe": 5354,
      "transcription": 5355,
      "clamour": 5356,
      "newsletter": 5357,
      "newspapers": 5358,
      "Internal": 5359,
      "International": 5360,
      "croqueting": 5361,
      "croqueted": 5362,
      "curtsey": 5363,
      "INCIDENT": 5364,
      "INCLU": 5365,
      "LIABILITY": 5366,
      "LIABLE": 5367,
      "confirmed": 5368,
      "confirmation": 5369,
      "Anything": 5370,
      "furrows": 5371,
      "viewing": 5372,
      "viewed": 5373,
      "desks": 5374,
      "desperate": 5375,
      "desperately": 5376,
      "uglify": 5377,
      "uglifying": 5378,
      "truthful": 5379,
      "FULCR": 5380,
      "squeeze": 5381,
      "squeezed": 5382,
      "variations": 5383,
      "variety": 5384,
      "alternate": 5385,
      "alternately": 5386,
      "calculate": 5387,
      "calculated": 5388,
      "possessed": 5389,
      "possession": 5390,
      "accounts": 5391,
      "Defects": 5392,
      "Redistributing": 5393,
      "Redistribution": 5394,
      "murdering": 5395,
      "annoyed": 5396,
      "original": 5397,
      "originator": 5398,
      "neighbouring": 5399,
      "employee": 5400,
      "employees": 5401,
      "occasional": 5402,
      "occasionally": 5403,
      "DISTRIBUTE": 5404,
      "DISTRIBUTOR": 5405,
      "1887": 5406,
      "1991": 5407,
      "2001": 5408,
      "596": 5409,
      "6221541": 5410,
      "84116": 5411,
      "About": 5412,
      "Ambition": 5413,
      "Author": 5414,
      "Ahem": 5415,
      "Atheling": 5416,
      "Australia": 5417,
      "ATIONS": 5418,
      "Bianca": 5419,
      "Brandy": 5420,
      "Besides": 5421,
      "Birds": 5422,
      "Between": 5423,
      "Boots": 5424,
      "Begin": 5425,
      "Classics": 5426,
      "Curiouser": 5427,
      "Certainly": 5428,
      "Creating": 5429,
      "David": 5430,
      "DiBianca": 5431,
      "Derision": 5432,
      "Despite": 5433,
      "Drive": 5434,
      "Distraction": 5435,
      "DONATIONS": 5436,
      "EVEN": 5437,
      "Elsie": 5438,
      "Esq": 5439,
      "Fender": 5440,
      "Fainting": 5441,
      "Fifteenth": 5442,
      "Fourteenth": 5443,
      "Fetch": 5444,
      "Forty": 5445,
      "FITNES": 5446,
      "FOUNDA": 5447,
      "Geography": 5448,
      "Grief": 5449,
      "Grammar": 5450,
      "Hjckrrh": 5451,
      "Hadn": 5452,
      "Hardly": 5453,
      "HAVE": 5454,
      "HEARTS": 5455,
      "IRS": 5456,
      "Illustration": 5457,
      "Indeed": 5458,
      "Idiot": 5459,
      "January": 5460,
      "Leave": 5461,
      "London": 5462,
      "Lacie": 5463,
      "Laughing": 5464,
      "Language": 5465,
      "Magpie": 5466,
      "MERCHAN": 5467,
      "Multiplication": 5468,
      "MARMAL": 5469,
      "Michael": 5470,
      "MILLENNIUM": 5471,
      "Number": 5472,
      "NEGLIGEN": 5473,
      "OWNER": 5474,
      "October": 5475,
      "OTHER": 5476,
      "Puss": 5477,
      "Pinch": 5478,
      "PARAGRAP": 5479,
      "PLEASE": 5480,
      "POSSIBILITY": 5481,
      "Rule": 5482,
      "Release": 5483,
      "Revenue": 5484,
      "RABBIT": 5485,
      "RIGHT": 5486,
      "SUCH": 5487,
      "Sixteenth": 5488,
      "Swim": 5489,
      "Service": 5490,
      "Sentence": 5491,
      "Salt": 5492,
      "Stigand": 5493,
      "Shakespeare": 5494,
      "Sections": 5495,
      "Stretching": 5496,
      "Seaography": 5497,
      "SOUP": 5498,
      "STRICT": 5499,
      "Title": 5500,
      "Trims": 5501,
      "Talking": 5502,
      "Tillie": 5503,
      "Twenty": 5504,
      "Those": 5505,
      "TABILITY": 5506,
      "Volunteers": 5507,
      "Waiting": 5508,
      "Widger": 5509,
      "WORK": 5510,
      "Zealand": 5511,
      "_hated_": 5512,
      "_her_": 5513,
      "_no_": 5514,
      "_his_": 5515,
      "_beg_": 5516,
      "_ours_": 5517,
      "_some_": 5518,
      "_then_": 5519,
      "_there_": 5520,
      "_began_": 5521,
      "_their_": 5522,
      "_more_": 5523,
      "_him_": 5524,
      "_What_": 5525,
      "_She_": 5526,
      "_precious": 5527,
      "_less_": 5528,
      "_yet_": 5529,
      "_sit_": 5530,
      "_red_": 5531,
      "_something_": 5532,
      "_through_": 5533,
      "_please_": 5534,
      "_speaker_": 5535,
      "_myself_": 5536,
      "_outside_": 5537,
      "_somebody_": 5538,
      "_Are_": 5539,
      "_Stolen": 5540,
      "_poison_": 5541,
      "_somewhere_": 5542,
      "_Everybody_": 5543,
      "_plenty_": 5544,
      "_proves_": 5545,
      "_curtseying_": 5546,
      "binary": 5547,
      "banquet": 5548,
      "barley": 5549,
      "balls": 5550,
      "balanced": 5551,
      "brave": 5552,
      "breeze": 5553,
      "bawled": 5554,
      "blades": 5555,
      "climb": 5556,
      "coward": 5557,
      "cherry": 5558,
      "centre": 5559,
      "cunning": 5560,
      "creep": 5561,
      "credit": 5562,
      "crawled": 5563,
      "draggled": 5564,
      "data": 5565,
      "dainties": 5566,
      "dunce": 5567,
      "daughter": 5568,
      "drowned": 5569,
      "evidently": 5570,
      "fidgeted": 5571,
      "fishes": 5572,
      "flew": 5573,
      "frying": 5574,
      "facility": 5575,
      "foolish": 5576,
      "failure": 5577,
      "ggling": 5578,
      "gnised": 5579,
      "gallons": 5580,
      "gained": 5581,
      "glaring": 5582,
      "https": 5583,
      "hypertext": 5584,
      "horse": 5585,
      "honest": 5586,
      "highest": 5587,
      "journey": 5588,
      "jelly": 5589,
      "knuckles": 5590,
      "lines": 5591,
      "louder": 5592,
      "lamps": 5593,
      "lullaby": 5594,
      "length": 5595,
      "languid": 5596,
      "mallets": 5597,
      "magic": 5598,
      "nasty": 5599,
      "powdered": 5600,
      "panted": 5601,
      "pronounced": 5602,
      "patience": 5603,
      "synonymous": 5604,
      "scolded": 5605,
      "suet": 5606,
      "sweet": 5607,
      "scratching": 5608,
      "slightest": 5609,
      "scrambling": 5610,
      "tittered": 5611,
      "tidy": 5612,
      "tunnel": 5613,
      "tinkling": 5614,
      "tureen": 5615,
      "virus": 5616,
      "vague": 5617,
      "vinegar": 5618,
      "vulgar": 5619,
      "wriggling": 5620,
      "wrapping": 5621,
      "widespread": 5622,
      "yelp": 5623,
      "yelled": 5624,
      "zigzag": 5625,
      "insolence": 5626,
      "inquisitively": 5627,
      "injure": 5628,
      "inaccurate": 5629,
      "inclined": 5630,
      "incessantly": 5631,
      "inquired": 5632,
      "increasing": 5633,
      "infringement": 5634,
      "ancient": 5635,
      "attached": 5636,
      "athies": 5637,
      "retire": 5638,
      "recognised": 5639,
      "remedies": 5640,
      "resource": 5641,
      "tomorrow": 5642,
      "thirteen": 5643,
      "thunderstorm": 5644,
      "enormous": 5645,
      "ensuring": 5646,
      "enjoy": 5647,
      "engraved": 5648,
      "arrived": 5649,
      "arrum": 5650,
      "leaders": 5651,
      "seldom": 5652,
      "secret": 5653,
      "library": 5654,
      "shepherd": 5655,
      "beloved": 5656,
      "adicted": 5657,
      "stalk": 5658,
      "stiff": 5659,
      "staff": 5660,
      "strength": 5661,
      "strings": 5662,
      "stretching": 5663,
      "steady": 5664,
      "choosing": 5665,
      "chrysalis": 5666,
      "chuckled": 5667,
      "especially": 5668,
      "rippling": 5669,
      "vegetable": 5670,
      "velvet": 5671,
      "shifting": 5672,
      "sharks": 5673,
      "necessarily": 5674,
      "imposed": 5675,
      "impertinent": 5676,
      "histories": 5677,
      "detach": 5678,
      "deletions": 5679,
      "deepest": 5680,
      "teapot": 5681,
      "unlocking": 5682,
      "unwillingly": 5683,
      "uncorked": 5684,
      "unsolicited": 5685,
      "unenforceability": 5686,
      "downloading": 5687,
      "permanent": 5688,
      "periodic": 5689,
      "cheeks": 5690,
      "Produced": 5691,
      "contradicted": 5692,
      "consented": 5693,
      "conduct": 5694,
      "consultation": 5695,
      "extras": 5696,
      "exporting": 5697,
      "exclamation": 5698,
      "indirectly": 5699,
      "placed": 5700,
      "gratefully": 5701,
      "machines": 5702,
      "maximum": 5703,
      "affectionately": 5704,
      "accusation": 5705,
      "accustomed": 5706,
      "accepting": 5707,
      "laughter": 5708,
      "holiday": 5709,
      "problem": 5710,
      "prohibition": 5711,
      "prosecute": 5712,
      "commercial": 5713,
      "commotion": 5714,
      "representations": 5715,
      "eyelids": 5716,
      "rudeness": 5717,
      "deductible": 5718,
      "Hearthrug": 5719,
      "preserve": 5720,
      "disgust": 5721,
      "discontinue": 5722,
      "disobey": 5723,
      "opposite": 5724,
      "impatient": 5725,
      "puffed": 5726,
      "Involved": 5727,
      "ENTIAL": 5728,
      "hippopotamus": 5729,
      "stockings": 5730,
      "obsolete": 5731,
      "indemnify": 5732,
      "Arithmetic": 5733,
      "ORANGE": 5734,
      "currants": 5735,
      "fluttered": 5736,
      "flustered": 5737,
      "REFUND": 5738,
      "REMEDIES": 5739,
      "REPLACEMENT": 5740,
      "sluggard_": 5741,
      "Antipathies": 5742,
      "critical": 5743,
      "corporation": 5744,
      "Additional": 5745,
      "described": 5746,
      "ridiculous": 5747,
      "Contents": 5748,
      "Mississippi": 5749,
      "TRADEMARK": 5750,
      "splendidly": 5751,
      "PROVIDED": 5752,
      "Canterbury": 5753,
      "Professor": 5754,
      "Christmas": 5755,
      "DISCLAIMER": 5756,
      "frontispiece": 5757,
      "saucepans": 5758,
      "INDEMNITY": 5759,
      "CONSEQUENTIAL": 5760,
      "EXPRESS": 5761,
      "IMPLIED": 5762,
      "circumstances": 5763,
      "familiarly": 5764,
      "trampled": 5765,
      "refreshments": 5766,
      "INCIDENTAL": 5767,
      "INCLUDING": 5768,
      "FULCRUM": 5769,
      "FITNESS": 5770,
      "FOUNDATION": 5771,
      "MERCHANTABILITY": 5772,
      "MARMALADE": 5773,
      "NEGLIGENCE": 5774,
      "PARAGRAPH": 5775,
      "_precious_": 5776
    },
    "merges": [
      "h e",
      "t he",
      "i n",
      "o u",
      "a n",
      "i t",
      "e r",
      "a t",
      "o n",
      "r e",
      "in g",
      "t o",
      "t h",
      "e d",
      "an d",
      "e n",
      "a s",
      "o r",
      "l l",
      "c e",
      "i d",
      "o f",
      "i s",
      "a r",
      "l e",
      "s e",
      "l i",
      "s a",
      "o w",
      "s he",
      "y ou",
      "b e",
      "m e",
      "a d",
      "sa id",
      "s t",
      "u t",
      "l y",
      ", ”",
      "A li",
      "Ali ce",
      "c h",
      "w as",
      "v er",
      "l d",
      "o t",
      "he r",
      "a ll",
      "g h",
      "e s",
      "r o",
      "th at",
      "en t",
      "s o",
      "w h",
      "! ”",
      "r i",
      "w it",
      "ou t",
      "v e",
      "wit h",
      "a l",
      "gh t",
      "n d",
      "o o",
      "u r",
      "i on",
      "t er",
      "f or",
      "a b",
      "c t",
      "a y",
      "ou ld",
      "k e",
      "g e",
      "t le",
      "T he",
      "s h",
      "u p",
      "on e",
      "n e",
      "n ot",
      ". ”",
      "h ad",
      "i r",
      "b ut",
      "a g",
      "ver y",
      "c k",
      "the r",
      "d o",
      "th ing",
      "t i",
      "oo k",
      "a in",
      "c o",
      "th is",
      "? ”",
      "h a",
      "u e",
      "n ow",
      "r y",
      "f e",
      "a re",
      "ow n",
      "w or",
      "l it",
      "i f",
      "s s",
      "n o",
      "the y",
      "i m",
      "p e",
      "ou nd",
      "m o",
      "m u",
      "lit tle",
      "h is",
      "se l",
      "b er",
      "W h",
      "i ll",
      "s u",
      "sel f",
      "r a",
      "e ct",
      "d e",
      "an y",
      "p o",
      "ar d",
      "t e",
      "u n",
      "w he",
      "se e",
      "l ook",
      "be g",
      "w ay",
      "ou se",
      "wh at",
      "d own",
      "it e",
      "in k",
      "ab out",
      "w er",
      "w e",
      "ou r",
      "ou ght",
      "k now",
      "p er",
      "u s",
      "at ion",
      "en ber",
      "ut enber",
      "utenber g",
      "c a",
      "ag ain",
      "g o",
      "j ect",
      "o ther",
      "the m",
      "li ke",
      "c ould",
      "w ent",
      "w ould",
      "wor k",
      "a m",
      "c he",
      "P ro",
      "c on",
      "f o",
      "of f",
      "wer e",
      "G utenberg",
      "i ce",
      "q u",
      "so me",
      "Pro ject",
      "b y",
      "e x",
      "in d",
      "her self",
      "ha ve",
      "i c",
      "you r",
      "p l",
      "th ought",
      "p h",
      "on g",
      "ti me",
      "m ent",
      "re e",
      "c an",
      "Q ue",
      "Que en",
      "d id",
      "e t",
      "l o",
      "ri ght",
      "the n",
      "ge t",
      "b it",
      "d on",
      "g r",
      "at ter",
      "sa y",
      "is t",
      "wh i",
      "whe n",
      "t ing",
      "wh o",
      "A nd",
      "I t",
      "Y ou",
      "he ad",
      "in to",
      "f u",
      "t a",
      "the re",
      "re at",
      "p le",
      "it s",
      "as t",
      "j u",
      "s i",
      "T ur",
      "b o",
      "ou s",
      "er s",
      "at e",
      "th ink",
      "K ing",
      "m y",
      "ar k",
      "p p",
      "an t",
      "v o",
      "to o",
      "ro m",
      "Tur tle",
      "M o",
      "m a",
      "ri ed",
      "beg an",
      "e p",
      "t m",
      "or t",
      "id e",
      "mu st",
      "Mo ck",
      "h ow",
      "l ing",
      "C at",
      "G ry",
      "H atter",
      "a f",
      "d er",
      "k ing",
      "u re",
      "u se",
      "mu ch",
      "qu ite",
      "ph on",
      "Gry phon",
      "m ouse",
      "q ue",
      "w on",
      "is h",
      "a c",
      "e ver",
      "g ot",
      "l a",
      "n ing",
      "re ad",
      "en d",
      "ab bit",
      "l ar",
      "m ark",
      "t w",
      "the ir",
      "f rom",
      "i ve",
      "p i",
      "ir st",
      "vo ice",
      "c our",
      "h o",
      "on ly",
      "mo re",
      "p ro",
      "t ur",
      "ou gh",
      "ar t",
      "co m",
      "h im",
      "i ght",
      "— ”",
      "whi ch",
      "R abbit",
      "l ed",
      "he re",
      "ne ver",
      "ju st",
      "a ck",
      "an ce",
      "fo re",
      "D u",
      "m ed",
      "ab le",
      "su ch",
      "look ed",
      "f irst",
      "m ad",
      "v en",
      "c u",
      "m in",
      "p y",
      "r ound",
      "ar ch",
      "Wh at",
      "H ow",
      "d ay",
      "o ver",
      "p t",
      "t one",
      "sh ould",
      "ca me",
      "che ss",
      "Du chess",
      "k ed",
      "l ong",
      "er p",
      "D or",
      "S he",
      "a ce",
      "p ut",
      "he d",
      "be fore",
      "we ll",
      "Dor mouse",
      "b ack",
      "g reat",
      "l t",
      "m an",
      "u nd",
      "re p",
      "en ce",
      "af ter",
      "c at",
      "e y",
      "l ow",
      "an g",
      "be en",
      "B ut",
      "h and",
      "m s",
      "p a",
      "r u",
      "oo d",
      "W e",
      "a ve",
      "i l",
      "l ast",
      "w ill",
      "The re",
      "E R",
      "O h",
      "T h",
      "d ed",
      "d ist",
      "i re",
      "r on",
      "co me",
      "co py",
      "fu ll",
      "I f",
      "M arch",
      "d s",
      "with out",
      "lar ge",
      "tw o",
      "S o",
      "e l",
      "e le",
      "f ound",
      "do or",
      "thing s",
      "te ll",
      "work s",
      "tur n",
      "und er",
      "p r",
      "s pe",
      "w r",
      "x t",
      "it ed",
      "as e",
      "se t",
      "look ing",
      "min ut",
      "D o",
      "H are",
      "g l",
      "j ur",
      "t r",
      "t ain",
      "t ry",
      "at es",
      "on ce",
      "all y",
      "ne ar",
      "mo ment",
      "de ar",
      "beg in",
      "C H",
      "M ouse",
      "a p",
      "m ber",
      "t al",
      "v es",
      "he ard",
      "in e",
      "en se",
      "li ed",
      "es s",
      "no thing",
      "gr ow",
      "ma ke",
      "mad e",
      "ele ct",
      "H e",
      "d y",
      "e st",
      "e very",
      "e ven",
      "m b",
      "m ay",
      "p re",
      "r ow",
      "th an",
      "ri but",
      "up on",
      "ill ar",
      "erp illar",
      "rep lied",
      "ey es",
      "Th at",
      "ron ic",
      "elect ronic",
      "a me",
      "a way",
      "e ar",
      "h ur",
      "m ight",
      "o ld",
      "v ing",
      "v ed",
      "w a",
      "re mark",
      "th ree",
      "en ed",
      "as s",
      "ne xt",
      "Cat erpillar",
      "won der",
      "N o",
      "h as",
      "o m",
      "t ed",
      "it ing",
      "at ed",
      "me an",
      "ag ree",
      "Wh y",
      "see med",
      "go ing",
      "cour se",
      "F ound",
      "c l",
      "c ut",
      "d en",
      "g ood",
      "i ld",
      "t en",
      "it y",
      "le ss",
      "so on",
      "jur y",
      "A P",
      "a ir",
      "b le",
      "d is",
      "f ind",
      "g ard",
      "i g",
      "i ous",
      "o p",
      "r an",
      "s ide",
      "t re",
      "on s",
      "ll ow",
      "is e",
      "ar y",
      "ion s",
      "for m",
      "sh all",
      "do es",
      "ra ther",
      "po or",
      "get ting",
      "bo dy",
      "cu ri",
      "dist ribut",
      "C o",
      "T ER",
      "g u",
      "sa me",
      "ne w",
      "ha pp",
      "whe re",
      "us ed",
      "too k",
      "ure s",
      "CH AP",
      "Found ation",
      "gard en",
      "CHAP TER",
      "O f",
      "c er",
      "p s",
      "s m",
      "s ort",
      "ad ded",
      "al f",
      "fe lt",
      "im p",
      "ation s",
      "que st",
      "We ll",
      "T his",
      "_ I",
      "c lo",
      "f an",
      "h alf",
      "t able",
      "w al",
      "w ish",
      "y et",
      "an other",
      "le s",
      "le t",
      "ch ild",
      "ro om",
      "oo l",
      "ti ll",
      "mo st",
      "Wh ite",
      "a k",
      "a ct",
      "c i",
      "c all",
      "d re",
      "g s",
      "p u",
      "p art",
      "s ent",
      "s up",
      "u l",
      "v id",
      "ce ss",
      "ar m",
      "ter ms",
      "The n",
      "The y",
      "fe e",
      "wor ds",
      "ca use",
      "ex e",
      "pl ay",
      "whi le",
      "la w",
      "minut e",
      "Co me",
      "I n",
      "c ro",
      "c ried",
      "e a",
      "e at",
      "f ace",
      "h ouse",
      "i ly",
      "k es",
      "m id",
      "p ar",
      "s it",
      "s po",
      "v ent",
      "w w",
      "’ ”",
      "he ar",
      "in ter",
      "re me",
      "su re",
      "any thing",
      "curi ous",
      "reme mber",
      "E N",
      "a h",
      "c reat",
      "d if",
      "f in",
      "h i",
      "h ard",
      "s to",
      "t ried",
      "w at",
      "z e",
      "“ —",
      "re pe",
      "is s",
      "le ep",
      "be t",
      "be ing",
      "ent ly",
      "fe et",
      "te a",
      "fu l",
      "copy right",
      "full y",
      "exe cut",
      "B ook",
      "M a",
      "S t",
      "T H",
      "U n",
      "d den",
      "e Book",
      "m or",
      "ou p",
      "re d",
      "th r",
      "en ough",
      "le ar",
      "li c",
      "fo llow",
      "some thing",
      "ta ke",
      "si l",
      "cour t",
      "turn ed",
      "ap pe",
      "ious ly",
      "cer tain",
      "A s",
      "B ill",
      "a ge",
      "o b",
      "o ot",
      "s at",
      "an s",
      "an x",
      "re n",
      "as ked",
      "is hed",
      "li e",
      "ha ps",
      "if ul",
      "Wh o",
      "su dden",
      "pl ace",
      "agree ment",
      "sm all",
      "quest ion",
      "spo ke",
      "dif f",
      "* *",
      ". )",
      "I I",
      "c ou",
      "o ple",
      "r ing",
      "s id",
      "s ur",
      "t ri",
      "in de",
      "ou d",
      "en er",
      "le f",
      "ne e",
      "ti ly",
      "are d",
      "pe ople",
      "po se",
      "per s",
      "tal king",
      "has tily",
      "cl u",
      "does n",
      "hi gh",
      "thr ough",
      ": —",
      "A r",
      "D in",
      "H er",
      "L it",
      "O R",
      "c ur",
      "d u",
      "d one",
      "d ance",
      "f l",
      "g ave",
      "i le",
      "j o",
      "k new",
      "l ist",
      "s w",
      "t in",
      "w ant",
      "the se",
      "an ge",
      "se en",
      "be cause",
      "ch o",
      "ab y",
      "ke ep",
      "fe ct",
      "ss ed",
      "ra w",
      "ra ph",
      "way s",
      "fo ot",
      "qu i",
      "say ing",
      "ple as",
      "ple ase",
      "bo th",
      "pp ed",
      "ide a",
      "art s",
      "begin ning",
      "_I _",
      "call ed",
      "St ates",
      "Un ited",
      "inde ed",
      "A N",
      "F or",
      "I N",
      "L I",
      "R E",
      "W ill",
      "_ very",
      "b ot",
      "b us",
      "b aby",
      "f ar",
      "m ou",
      "n er",
      "n ess",
      "s ing",
      "z z",
      "he l",
      "it self",
      "re st",
      "to ge",
      "se a",
      "sa w",
      "ad e",
      "st and",
      "ch ange",
      "te m",
      "per haps",
      "con f",
      "ex pl",
      "did n",
      "pi e",
      "ho ld",
      "com p",
      "How ever",
      "ire ct",
      "spe ak",
      "try ing",
      "tal k",
      "happ en",
      "clo se",
      "pu zz",
      "bet ter",
      "ans wer",
      "anx iously",
      "lef t",
      "Din ah",
      "_very _",
      "mou th",
      "toge ther",
      "S oup",
      "b ook",
      "c ook",
      "d irect",
      "e k",
      "f all",
      "g one",
      "g ame",
      "h ind",
      "i ther",
      "m p",
      "m any",
      "n ame",
      "r up",
      "r un",
      "s l",
      "in clu",
      "er ary",
      "re as",
      "ce pt",
      "is ter",
      "li fe",
      "be hind",
      "st er",
      "ut iful",
      "ch ing",
      "ch ive",
      "wh y",
      "wh is",
      "for t",
      "ke pt",
      "sh ri",
      "ag raph",
      "who le",
      "si ze",
      "ort ant",
      "que er",
      "tur ning",
      "cat s",
      "Do do",
      "tr ade",
      "hur ried",
      "imp ortant",
      "par agraph",
      "certain ly",
      "Ar chive",
      "Lit erary",
      "hel p",
      "trade mark",
      ") ,",
      "A n",
      "F oot",
      "N ow",
      "Y es",
      "_ that",
      "b b",
      "b ir",
      "c la",
      "d i",
      "e ly",
      "f ree",
      "g lo",
      "g ive",
      "g ener",
      "j est",
      "m ind",
      "m iss",
      "s ound",
      "as k",
      "be a",
      "be st",
      "st ill",
      "ly ing",
      "ch ang",
      "ver s",
      "al ways",
      "ge on",
      "sh o",
      "sh ar",
      "but ter",
      "ag er",
      "ti mid",
      "ra id",
      "ect ion",
      "de al",
      "ard s",
      "would n",
      "am ong",
      "che d",
      "che s",
      "don ations",
      "ta il",
      "ant ly",
      "ma kes",
      "af raid",
      "ac cess",
      "med i",
      "erp ent",
      "hed ge",
      "hand s",
      "el se",
      "every thing",
      "hur ry",
      "sup pose",
      "law s",
      "inter rup",
      "fin ished",
      "Ma jest",
      "sudden ly",
      "sur pr",
      "jo in",
      "Majest y",
      "D on",
      "L et",
      "O F",
      "P i",
      "a ke",
      "c r",
      "c ar",
      "d ou",
      "e f",
      "e ager",
      "h all",
      "k en",
      "m ain",
      "m atter",
      "p ass",
      "r ink",
      "s leep",
      "s nee",
      "s ister",
      "in st",
      "re ce",
      "re ally",
      "th o",
      "or g",
      "is ed",
      "ar s",
      "li ve",
      "ch ar",
      "was n",
      "ld i",
      "so ldi",
      "sh out",
      "ck ed",
      "wor d",
      "su b",
      "de ep",
      "whe ther",
      "us ing",
      "con vers",
      "off end",
      "time s",
      "gr in",
      "bo x",
      "que t",
      "read y",
      "minut es",
      "gl ad",
      "near ly",
      "grow ing",
      "wa ited",
      "Of f",
      "hard ly",
      "lear n",
      "sil ence",
      "tri al",
      "Her e",
      "list en",
      "reas on",
      "Foot man",
      "cla im",
      "glo ves",
      "Pi geon",
      "A R",
      "L ic",
      "O n",
      "W he",
      "_ you",
      "a king",
      "b right",
      "c re",
      "c ed",
      "c or",
      "c id",
      "d ing",
      "d le",
      "e ither",
      "f ur",
      "f right",
      "g ra",
      "g utenberg",
      "i ck",
      "o h",
      "o pp",
      "p ool",
      "s too",
      "v i",
      "w o",
      "w ind",
      "er ent",
      "th ough",
      "se ver",
      "be lie",
      "ad v",
      "ri ly",
      "wit ness",
      "ke y",
      "ha ving",
      "fe w",
      "te ars",
      "again st",
      "con tin",
      "your self",
      "ment s",
      "ju mp",
      "si g",
      "si ght",
      "think ing",
      "ort un",
      "tw ink",
      "min e",
      "wr iting",
      "gl ass",
      "mb ling",
      "remark ed",
      "less ons",
      "op en",
      "op ened",
      "wal ked",
      "child ren",
      "dre am",
      "part y",
      "sit ting",
      "ww w",
      "creat ures",
      "repe ated",
      "appe ared",
      "diff erent",
      "cou n",
      "pers on",
      "bot tle",
      "pie ce",
      "shar p",
      "hedge ho",
      "dou b",
      "soldi ers",
      "offend ed",
      "Lic ense",
      "Whe n",
      "opp ortun",
      ", )",
      "A d",
      "A t",
      "B ea",
      "C T",
      "K n",
      "N ot",
      "W ould",
      "a u",
      "a w",
      "a ther",
      "b r",
      "b s",
      "b ow",
      "b ro",
      "c are",
      "c row",
      "d es",
      "f our",
      "g er",
      "i ch",
      "k y",
      "k ind",
      "l oud",
      "m n",
      "o l",
      "r ate",
      "s p",
      "s erpent",
      "t ree",
      "u m",
      "u ed",
      "u st",
      "w ood",
      "it ten",
      "at i",
      "re a",
      "to p",
      "to ry",
      "or der",
      "le ast",
      "ke t",
      "sh ook",
      "not ic",
      "ck ing",
      "co pi",
      "wor ld",
      "mo ved",
      "go ld",
      "could n",
      "con sid",
      "lo b",
      "head s",
      "fu nd",
      "end ing",
      "pi g",
      "pro v",
      "com ing",
      "ang rily",
      "pr ot",
      "wr itten",
      "ear s",
      "fee ling",
      "vent ures",
      "repe at",
      "execut ion",
      "TH E",
      "mor al",
      "expl ain",
      "puzz led",
      "bir ds",
      "miss ion",
      "timid ly",
      "interrup ted",
      "snee z",
      "rece i",
      "tho se",
      "shout ed",
      "convers ation",
      "belie ve",
      "contin ued",
      "opportun ity",
      "Kn ave",
      "consid er",
      "E n",
      "I T",
      "O N",
      "O U",
      "U T",
      "_ is",
      "_ your",
      "b at",
      "c y",
      "c us",
      "c ket",
      "d ly",
      "d ry",
      "d read",
      "d raw",
      "f ish",
      "f act",
      "g ed",
      "i am",
      "l ate",
      "m it",
      "m er",
      "n i",
      "n u",
      "n at",
      "n ed",
      "n ice",
      "p per",
      "p rom",
      "s low",
      "u ght",
      "u su",
      "u lt",
      "y al",
      "— ‘",
      "in t",
      "in ess",
      "re fund",
      "as h",
      "as so",
      "as leep",
      "le ave",
      "se s",
      "se con",
      "li ght",
      "st ate",
      "ch in",
      "so le",
      "wh ite",
      "wh iting",
      "al most",
      "for th",
      "for got",
      "sh room",
      "ne y",
      "ag ed",
      "ha ven",
      "fe el",
      "no se",
      "mu shroom",
      "Wh ich",
      "ect ed",
      "see m",
      "us ion",
      "other s",
      "am ing",
      "off ic",
      "ma king",
      "ac le",
      "mark ed",
      "cu lar",
      "day s",
      "pa w",
      "dist ance",
      "pre ssed",
      "wa iting",
      "mean s",
      "mean ing",
      "form ation",
      "distribut ing",
      "garden ers",
      "fan cy",
      "act ly",
      "ci ated",
      "vid ence",
      "cro quet",
      "ea ch",
      "mid dle",
      "wat ch",
      "follow ed",
      "Will iam",
      "bus iness",
      "run ning",
      "sl ates",
      "inclu ding",
      "whis per",
      "_that _",
      "bea utiful",
      "chang ed",
      "eager ly",
      "sub ject",
      "_you _",
      "vi ol",
      "wind ow",
      "doub t",
      "notic ed",
      "En gl",
      "_is _",
      "slow ly",
      "asso ciated",
      ". ’”",
      "A G",
      "C he",
      "E D",
      "E x",
      "F ive",
      "F irst",
      "I S",
      "J ust",
      "L i",
      "L or",
      "R e",
      "S E",
      "S oo",
      "S ection",
      "_ not",
      "_ what",
      "b ur",
      "b read",
      "c ri",
      "d ro",
      "e g",
      "e m",
      "e as",
      "e ll",
      "g ir",
      "h ot",
      "h un",
      "i es",
      "l s",
      "p ay",
      "p up",
      "p ard",
      "s ch",
      "s ir",
      "s ong",
      "s cre",
      "t u",
      "t y",
      "u g",
      "— “",
      "an k",
      "it ions",
      "at t",
      "re t",
      "re main",
      "as ter",
      "is n",
      "le a",
      "st up",
      "st ers",
      "ch im",
      "oo p",
      "sh ow",
      "sh ut",
      "sh ire",
      "ne ck",
      "not ice",
      "had n",
      "ti red",
      "ti cular",
      "ha ir",
      "ss i",
      "his tory",
      "de cid",
      "de light",
      "po cket",
      "po ssi",
      "un com",
      "beg un",
      "go es",
      "qu ire",
      "lo cat",
      "gr own",
      "gr ound",
      "ta x",
      "si gh",
      "ate ly",
      "my self",
      "how ever",
      "read ing",
      "end s",
      "lar ger",
      "pro vid",
      "pro cess",
      "man age",
      "ey e",
      "pa ir",
      "under stand",
      "mb led",
      "wonder ing",
      "tre es",
      "ons ense",
      "distribut ion",
      "happ ened",
      "sent ence",
      "par ticular",
      "vent ure",
      "sto ry",
      "eBook s",
      "sil ent",
      "diff ic",
      "sid es",
      "fl aming",
      "qui et",
      "pleas ed",
      "tem per",
      "tem pt",
      "gener ally",
      "sho es",
      "surpr ised",
      "fright ened",
      "stoo d",
      "hedgeho g",
      "ati ently",
      "copi es",
      "gold en",
      "lob sters",
      "prov ide",
      "_your _",
      "nu mber",
      "sole mn",
      "Engl ish",
      "Che shire",
      "Lor y",
      "pup py",
      "pard on",
      "sch ool",
      "chim ney",
      "decid ed",
      "locat ed",
      "flaming o",
      "A f",
      "A ll",
      "C E",
      "E S",
      "L ob",
      "O ne",
      "P le",
      "Q u",
      "T I",
      "T wo",
      "Y OU",
      "a v",
      "a pp",
      "a il",
      "b ly",
      "d are",
      "e w",
      "e vidence",
      "f i",
      "f un",
      "g re",
      "g ing",
      "g es",
      "h our",
      "i ed",
      "l an",
      "l and",
      "l ad",
      "l ink",
      "l ine",
      "m en",
      "n ur",
      "n onsense",
      "p or",
      "p ri",
      "r id",
      "r abbit",
      "s _",
      "s n",
      "s or",
      "s im",
      "t ch",
      "t ru",
      "t arts",
      "u al",
      "w ise",
      "w ards",
      "z es",
      "z ard",
      "in ches",
      "ou ble",
      "an im",
      "it h",
      "re quire",
      "to ld",
      "ed itions",
      "or s",
      "of ten",
      "is on",
      "ar ing",
      "ar ms",
      "ar gu",
      "li ked",
      "you th",
      "be l",
      "be at",
      "be low",
      "me lan",
      "st s",
      "st ay",
      "ut ter",
      "ld ed",
      "all ow",
      "ro of",
      "ro ss",
      "ro yal",
      "out side",
      "with in",
      "al s",
      "al ong",
      "ti es",
      "co ll",
      "fe ll",
      "fe tch",
      "wor th",
      "lit ely",
      "ss ing",
      "im medi",
      "pe pper",
      "Wh ile",
      "po litely",
      "un te",
      "we l",
      "we en",
      "per mission",
      "am ed",
      "some body",
      "ex t",
      "ex claim",
      "lo ve",
      "vo l",
      "pi ct",
      "pi gs",
      "ho pe",
      "him self",
      "pa id",
      "pa per",
      "spe ct",
      "tr ouble",
      "ine a",
      "He arts",
      "pre sent",
      "dis play",
      "ig n",
      "tre mbling",
      "form at",
      "distribut e",
      "gu ess",
      "gu inea",
      "wal k",
      "inter est",
      "fin ish",
      "execut ed",
      "lic ense",
      "** *",
      "sw im",
      "sw am",
      "cho ly",
      "comp ly",
      "shri ek",
      "char ge",
      "gra ve",
      "jump ed",
      "bro ken",
      "prot ected",
      "execution er",
      "sneez ing",
      "recei ved",
      "dread fully",
      "secon d",
      "forgot ten",
      "Li zard",
      "_not _",
      "lea ves",
      "stup id",
      "diffic ult",
      "Af ter",
      "Lob ster",
      "Ple ase",
      "sim ple",
      "melan choly",
      "exclaim ed",
      "! ’",
      "( “",
      "1 1",
      "A D",
      "A h",
      "A re",
      "B e",
      "B y",
      "C on",
      "E very",
      "F U",
      "M y",
      "M iss",
      "N O",
      "N or",
      "P R",
      "S even",
      "T R",
      "T Y",
      "T o",
      "T ell",
      "V er",
      "W on",
      "W here",
      "_ was",
      "_ would",
      "b ring",
      "c le",
      "c up",
      "c ry",
      "c ru",
      "c ase",
      "c lear",
      "d in",
      "d rink",
      "f f",
      "f ing",
      "f ri",
      "f ire",
      "f ig",
      "g ar",
      "h ook",
      "k id",
      "k no",
      "k nee",
      "l ay",
      "m i",
      "m on",
      "m utter",
      "n g",
      "n y",
      "n ight",
      "n ine",
      "o c",
      "o s",
      "p it",
      "p ing",
      "p ur",
      "p ack",
      "r own",
      "s ic",
      "s pl",
      "s que",
      "s ky",
      "t wel",
      "u mb",
      "v an",
      "v ous",
      "w and",
      "w ink",
      "he ight",
      "in v",
      "it ion",
      "er ed",
      "th or",
      "th row",
      "ed s",
      "as king",
      "ll e",
      "ll ed",
      "ce ed",
      "ar row",
      "le g",
      "li f",
      "li ance",
      "sa ge",
      "sa dly",
      "you ng",
      "be come",
      "me ant",
      "ad ri",
      "ad dre",
      "st art",
      "st ran",
      "st ick",
      "was h",
      "ot s",
      "ro se",
      "al one",
      "al oud",
      "al together",
      "oo se",
      "for table",
      "sh an",
      "sh rink",
      "ne at",
      "do ing",
      "ti l",
      "fe llow",
      "no body",
      "su l",
      "ra ce",
      "de fect",
      "any one",
      "po in",
      "te en",
      "te ac",
      "un til",
      "see ms",
      "per form",
      "like ly",
      "che ck",
      "fo lded",
      "some times",
      "ex cept",
      "ex actly",
      "ind ign",
      "pl an",
      "pl ain",
      "can not",
      "don ate",
      "gr un",
      "ta king",
      "ju d",
      "pp ing",
      "der land",
      "ac ross",
      "tw ice",
      "ho me",
      "pro per",
      "pro du",
      "should n",
      "rep ly",
      "ang ry",
      "spe aking",
      "wr ite",
      "wr ong",
      "near er",
      "every body",
      "even ing",
      "mb s",
      "wa ving",
      "air s",
      "tre acle",
      "curi os",
      "imp atiently",
      "clo ck",
      "wal king",
      "let ter",
      "dre w",
      "In formation",
      "face s",
      "remember ed",
      "EN T",
      "sto p",
      "wat er",
      "bet ween",
      "mor ning",
      "ob tain",
      "raw ling",
      "ner vous",
      "conf usion",
      "expl an",
      "happen s",
      "direct ion",
      "shri ll",
      "bb ing",
      "sound ed",
      "medi um",
      "surpr ise",
      "ef fort",
      "pass ed",
      "sleep y",
      "inst antly",
      "sever al",
      "sig hed",
      "twink le",
      "coun try",
      "Ad ventures",
      "Bea utiful",
      "crow ded",
      "mit ted",
      "ni bb",
      "usu al",
      "paw s",
      "whisper ed",
      "dro pped",
      "eg gs",
      "process ion",
      "quiet ly",
      "Qu adri",
      "sor row",
      "unte ers",
      "interest ing",
      "PR O",
      "Ver y",
      "Won derland",
      "_was _",
      "_would _",
      "fing er",
      "hook ah",
      "stran ge",
      "teac up",
      "curios ity",
      "Quadri lle",
      ") .",
      ", ’”",
      "0 0",
      "? —",
      "A B",
      "A L",
      "B ER",
      "C an",
      "C all",
      "C au",
      "D A",
      "D own",
      "E CT",
      "F ren",
      "F OR",
      "F ather",
      "G UT",
      "H old",
      "I V",
      "J ECT",
      "L L",
      "L ong",
      "M ary",
      "N ever",
      "P r",
      "R o",
      "R AN",
      "S a",
      "S e",
      "S h",
      "S ure",
      "T ake",
      "V II",
      "W AR",
      "W ith",
      "_ me",
      "_ have",
      "_ can",
      "_ You",
      "_ think",
      "a x",
      "b reat",
      "b ank",
      "d am",
      "d ark",
      "d ish",
      "d ition",
      "e ad",
      "f it",
      "f er",
      "f on",
      "f ly",
      "f ill",
      "f lo",
      "f ast",
      "f la",
      "f low",
      "f air",
      "f rown",
      "g i",
      "g ue",
      "g ently",
      "h on",
      "i al",
      "i lit",
      "i vid",
      "k it",
      "l at",
      "m ice",
      "m aster",
      "n one",
      "p an",
      "p as",
      "p atter",
      "p ort",
      "r ase",
      "s in",
      "s er",
      "s ed",
      "s li",
      "s oup",
      "t ong",
      "t ast",
      "u ll",
      "u de",
      "u ff",
      "v ar",
      "v il",
      "v age",
      "w ow",
      "w ide",
      "w ild",
      "y er",
      "y aw",
      "— ’",
      "— ’”",
      "he ld",
      "it ude",
      "at us",
      "on es",
      "on line",
      "re al",
      "re turn",
      "re place",
      "re moved",
      "to m",
      "th im",
      "or us",
      "id er",
      "is it",
      "ar re",
      "ar se",
      "ar ches",
      "se arch",
      "li ves",
      "sa vage",
      "be head",
      "me t",
      "me et",
      "ad ventures",
      "st ed",
      "st ra",
      "st ates",
      "st airs",
      "st atus",
      "ch ance",
      "ver se",
      "ver di",
      "ver ses",
      "ot e",
      "her s",
      "es ca",
      "so lic",
      "so bs",
      "al so",
      "al ter",
      "ur al",
      "sh ort",
      "up set",
      "ne ed",
      "ti p",
      "co st",
      "co ver",
      "fe ar",
      "fe es",
      "if y",
      "pe t",
      "pe ct",
      "pe ep",
      "mo ve",
      "sel ves",
      "ra ge",
      "de ad",
      "po ise",
      "po sted",
      "te les",
      "un less",
      "we ek",
      "we bs",
      "per fect",
      "ca pit",
      "other wise",
      "che n",
      "con cer",
      "con tempt",
      "qu arre",
      "ex p",
      "ex pect",
      "ind ivid",
      "ic ation",
      "thought fully",
      "ph rase",
      "gr ass",
      "say s",
      "ta ct",
      "ta ken",
      "ta ught",
      "der i",
      "ac cept",
      "ho le",
      "ho arse",
      "com put",
      "led ge",
      "should er",
      "should ers",
      "man aged",
      "pa le",
      "ru le",
      "ru sh",
      "ru les",
      "copy ing",
      "So me",
      "el bow",
      "set t",
      "jur ors",
      "tr ue",
      "begin s",
      "pre t",
      "ear th",
      "No thing",
      "jury men",
      "dis claim",
      "ig ging",
      "distribut ed",
      "sm i",
      "quest ions",
      "ci vil",
      "sup pressed",
      "sup port",
      "play ers",
      "cro ss",
      "hear ing",
      "EN BER",
      "creat ure",
      "Ma bel",
      "follow ing",
      "appe ar",
      "oot iful",
      "cou rage",
      "tin y",
      "want ed",
      "keep ing",
      "qui ck",
      "AN D",
      "AN Y",
      "bot tom",
      "bus ily",
      "conf used",
      "hold er",
      "comp liance",
      "puzz ling",
      "answer ed",
      "mouth s",
      "fall en",
      "sl ate",
      "fort un",
      "An n",
      "free ly",
      "bea ut",
      "sho re",
      "car ry",
      "car ried",
      "pass ion",
      "deep ly",
      "cor ner",
      "fur ther",
      "sever ely",
      "jump ing",
      "twink ling",
      "sharp ly",
      "Bea u",
      "bow ed",
      "crow d",
      "rea ch",
      "order ed",
      "bat s",
      "nat ural",
      "offic ers",
      "viol ently",
      "eas ily",
      "gir l",
      "hun g",
      "scre amed",
      "ret ched",
      "possi ble",
      "uncom fortable",
      "provid ing",
      "venture d",
      "solemn ly",
      "decided ly",
      "gre en",
      "hour s",
      "por poise",
      "anim als",
      "require ments",
      "argu ment",
      "coll ection",
      "vol unteers",
      "pict ures",
      "display ing",
      "difficult y",
      "cru mbs",
      "twel ve",
      "van ished",
      "shrink ing",
      "poin ting",
      "indign antly",
      "grun ted",
      "jud ge",
      "explan ation",
      "PRO JECT",
      "Cau cus",
      "Fren ch",
      "GUT ENBER",
      "Sa id",
      "WAR RAN",
      "_me _",
      "_have _",
      "_can _",
      "_think _",
      "breat h",
      "fon d",
      "frown ing",
      "hon our",
      "ilit y",
      "kit chen",
      "pas sage",
      "sin ce",
      "tong ue",
      "thim ble",
      "stra ight",
      "verdi ct",
      "esca pe",
      "teles co",
      "webs ite",
      "perfect ly",
      "capit al",
      "individ ual",
      "GUTENBER G",
      "! —",
      "! ’”",
      ", ’",
      ". —",
      ". ’",
      "2 0",
      "; ”",
      "A S",
      "A T",
      "B UT",
      "C h",
      "C ar",
      "C ons",
      "D id",
      "D ER",
      "D IS",
      "D rawling",
      "E M",
      "E d",
      "E ag",
      "G o",
      "G ive",
      "G ener",
      "H ave",
      "I s",
      "I LI",
      "L A",
      "L at",
      "L ew",
      "M E",
      "M ay",
      "M IT",
      "M AG",
      "O w",
      "P an",
      "P er",
      "P at",
      "P ep",
      "P ig",
      "R ight",
      "S to",
      "S up",
      "S pe",
      "S il",
      "S erpent",
      "T i",
      "T or",
      "T is",
      "T wink",
      "U p",
      "V I",
      "Y et",
      "_ he",
      "_ she",
      "_ one",
      "_ this",
      "_ are",
      "_ could",
      "_ must",
      "_ will",
      "_ That",
      "a live",
      "b ound",
      "b ark",
      "b low",
      "b ran",
      "b lic",
      "b rea",
      "c ing",
      "c and",
      "c al",
      "c il",
      "c ards",
      "c ceed",
      "d ri",
      "d ated",
      "e ch",
      "e el",
      "e qui",
      "f ut",
      "f its",
      "f ight",
      "f ron",
      "f aster",
      "h ang",
      "h umb",
      "i e",
      "j aw",
      "k ill",
      "k ers",
      "k ick",
      "k ni",
      "m _",
      "m ing",
      "m is",
      "m one",
      "m ist",
      "m ile",
      "m pet",
      "n on",
      "n ers",
      "o y",
      "o ve",
      "p in",
      "p en",
      "p ain",
      "p un",
      "p ment",
      "p ast",
      "p ity",
      "r at",
      "s k",
      "s mo",
      "s ense",
      "s imp",
      "s ending",
      "t is",
      "t went",
      "t reat",
      "u sh",
      "u ne",
      "u ck",
      "u ous",
      "v at",
      "v ice",
      "w in",
      "x ed",
      "y ing",
      "y est",
      "z ed",
      "’ !”",
      "“ ‘",
      "he s",
      "in ted",
      "in formation",
      "ou n",
      "an ta",
      "an ced",
      "it ation",
      "er ing",
      "er al",
      "er day",
      "at tempt",
      "re gu",
      "re sent",
      "re lie",
      "re spect",
      "to es",
      "to ise",
      "to ssing",
      "th and",
      "ed ge",
      "en g",
      "en cour",
      "as hed",
      "ll ing",
      "is ing",
      "ar ound",
      "le gs",
      "li very",
      "li ved",
      "li ged",
      "li mit",
      "sa d",
      "sa l",
      "sa u",
      "be ast",
      "be long",
      "be sides",
      "me s",
      "ad ing",
      "ad ed",
      "ad dition",
      "st ant",
      "st aring",
      "st uff",
      "ut iously",
      "ch orus",
      "ro g",
      "ro ll",
      "ro du",
      "ro ses",
      "ent ity",
      "so bbing",
      "ri ous",
      "al as",
      "al ready",
      "ion ed",
      "for getting",
      "ab ility",
      "ab ove",
      "sh ap",
      "sh aking",
      "ne st",
      "not ion",
      "ag ing",
      "ag es",
      "ck s",
      "do g",
      "do th",
      "do gs",
      "own er",
      "wor se",
      "no ise",
      "im possible",
      "mo ving",
      "mu sic",
      "su it",
      "su lt",
      "su cceed",
      "ra ct",
      "de cl",
      "any where",
      "po s",
      "po sit",
      "po ison",
      "te xt",
      "un important",
      "un fortun",
      "our n",
      "know ledge",
      "per mitted",
      "us er",
      "ca ke",
      "ca kes",
      "ca ught",
      "ca utiously",
      "them selves",
      "che cked",
      "che ered",
      "con tain",
      "con tact",
      "con stant",
      "some where",
      "ex am",
      "pl ate",
      "ment ioned",
      "lo st",
      "gr and",
      "ta le",
      "ta kes",
      "ple s",
      "ple aded",
      "si x",
      "Tur n",
      "bo y",
      "bo ots",
      "ma il",
      "must ard",
      "how ling",
      "much ness",
      "ac les",
      "ac cid",
      "ac coun",
      "tw ist",
      "pi cked",
      "voice s",
      "ho ping",
      "ough ly",
      "Du ck",
      "long er",
      "put ting",
      "cat ch",
      "hand ed",
      "Th ank",
      "turn s",
      "pr ison",
      "pr inted",
      "spe ech",
      "wr ote",
      "tr ot",
      "dear s",
      "grow l",
      "hur t",
      "wa ist",
      "remark s",
      "remark ing",
      "No body",
      "cl usion",
      "less on",
      "find ing",
      "happ y",
      "sort s",
      "ci al",
      "pu blic",
      "part s",
      "cro ssed",
      "EN D",
      "creat ing",
      "sto pped",
      "wat ching",
      "TH IS",
      "lic able",
      "follow s",
      "ob liged",
      "anx ious",
      "small er",
      "du ll",
      "sw allow",
      "cho ked",
      "foot man",
      "pleas ant",
      "IN D",
      "IN G",
      "LI MIT",
      "RE S",
      "conf using",
      "hold ing",
      "comp lying",
      "direct ly",
      "direct ions",
      "inclu ded",
      "whis kers",
      "paragraph s",
      "gener al",
      "sound s",
      "tail s",
      "join ed",
      "cr own",
      "cr ash",
      "ef fect",
      "inst ance",
      "inst ead",
      "grin ned",
      "listen ing",
      "AR T",
      "On ce",
      "On ly",
      "adv ance",
      "adv anta",
      "sig n",
      "open ing",
      "piece s",
      "hedgeho gs",
      "br ought",
      "care fully",
      "loud ly",
      "sp read",
      "serpent s",
      "repeat ing",
      "consider ing",
      "consider ed",
      "cus to",
      "prom ot",
      "usu ally",
      "int rodu",
      "offic ial",
      "AG RE",
      "Ex actly",
      "bur n",
      "eas y",
      "gir ls",
      "hun ting",
      "pay ing",
      "pay ments",
      "tu cked",
      "att ending",
      "remain ed",
      "possi bly",
      "sigh ing",
      "provid ed",
      "app licable",
      "fun ny",
      "lad y",
      "link s",
      "nur se",
      "nur sing",
      "pri zes",
      "sn ail",
      "tru mpet",
      "royal ties",
      "immedi ate",
      "immedi ately",
      "ext ra",
      "spect acles",
      "guess ed",
      "grave ly",
      "Every body",
      "Nor th",
      "TR I",
      "bring ing",
      "fri end",
      "fig ure",
      "kno cking",
      "mi les",
      "mutter ing",
      "oc cur",
      "spl ash",
      "wash ing",
      "sul ky",
      "defect ive",
      "teen th",
      "perform ing",
      "effort s",
      "nibb ling",
      "DA MAG",
      "Pr ay",
      "Se e",
      "fill ed",
      "flo or",
      "gue sts",
      "lat er",
      "patter ing",
      "sli pped",
      "tast ed",
      "replace ment",
      "behead ed",
      "need n",
      "cover ed",
      "peep ed",
      "contempt uous",
      "exp ense",
      "expect ing",
      "deri vat",
      "sett led",
      "hung ry",
      "telesco pe",
      "Car roll",
      "Cons ider",
      "Eag let",
      "Gener al",
      "ILI TY",
      "Lew is",
      "Ow l",
      "Pan ther",
      "Per haps",
      "Pep per",
      "Sil ence",
      "Ti me",
      "Tor toise",
      "Twink le",
      "_he _",
      "_one _",
      "_are _",
      "_must _",
      "_will _",
      "_That _",
      "brea the",
      "cand le",
      "equi pment",
      "fut ure",
      "hang ing",
      "kni fe",
      "mone y",
      "mist ake",
      "pen cil",
      "simp ly",
      "une as",
      "yest erday",
      "limit ation",
      "shap ed",
      "succeed ed",
      "unfortun ate",
      "accid ent",
      "LIMIT ED",
      "advanta ge",
      "derivat ive",
      ") :",
      ") ;",
      ") —“",
      "- -",
      "0 1",
      "1 5",
      "9 0",
      "? ’”",
      "A l",
      "A CH",
      "A LI",
      "A CT",
      "B E",
      "B O",
      "B RE",
      "C r",
      "C ro",
      "C om",
      "C EN",
      "C II",
      "C ON",
      "D R",
      "D e",
      "D igging",
      "E X",
      "E vidence",
      "E BO",
      "F ur",
      "F ish",
      "G et",
      "G round",
      "H o",
      "H ush",
      "I M",
      "I X",
      "I m",
      "I RE",
      "I LL",
      "K e",
      "L E",
      "L ast",
      "L AND",
      "M er",
      "M or",
      "M ad",
      "M ind",
      "N ear",
      "N IT",
      "N ext",
      "O K",
      "O SE",
      "P G",
      "P U",
      "P l",
      "P o",
      "P ar",
      "P ri",
      "P art",
      "P ool",
      "P resent",
      "Q U",
      "R ed",
      "R ace",
      "S T",
      "S u",
      "S hall",
      "S tory",
      "S ends",
      "T O",
      "T a",
      "T er",
      "T re",
      "T ea",
      "T arts",
      "T ears",
      "U M",
      "U S",
      "U g",
      "U se",
      "U gh",
      "U RES",
      "V an",
      "V ENT",
      "W r",
      "W ow",
      "W ake",
      "W ON",
      "X I",
      "X II",
      "Y our",
      "_ in",
      "_ it",
      "_ said",
      "_ quite",
      "_ ever",
      "_ here",
      "_ never",
      "_ Un",
      "_ important",
      "_ best",
      "_ mine",
      "a is",
      "a ch",
      "a ked",
      "b l",
      "b re",
      "b ed",
      "b as",
      "b ad",
      "b ite",
      "b our",
      "b ish",
      "b la",
      "b end",
      "b last",
      "b ble",
      "b eds",
      "b arrow",
      "b rush",
      "c as",
      "c ir",
      "c if",
      "c ra",
      "c ard",
      "c art",
      "c ations",
      "c ool",
      "c laws",
      "d an",
      "d ate",
      "d les",
      "d run",
      "d igging",
      "d ais",
      "f ed",
      "f ain",
      "f if",
      "f ra",
      "f am",
      "f ine",
      "f arm",
      "f ile",
      "f ather",
      "f ash",
      "f av",
      "f oun",
      "f rog",
      "g id",
      "g raph",
      "g ister",
      "g oose",
      "h it",
      "h at",
      "h atter",
      "h ate",
      "h und",
      "h arm",
      "h int",
      "i gh",
      "i ble",
      "i ef",
      "j ar",
      "k ne",
      "k not",
      "k ily",
      "k iss",
      "l id",
      "l one",
      "l ves",
      "l oose",
      "m ar",
      "m ur",
      "m ous",
      "m pt",
      "m il",
      "m ited",
      "m mer",
      "m ourn",
      "n or",
      "n am",
      "n arrow",
      "o d",
      "o graph",
      "p at",
      "p ed",
      "p id",
      "p ot",
      "p es",
      "p ite",
      "p arch",
      "p rep",
      "p ence",
      "p ends",
      "p atiently",
      "p ract",
      "r ance",
      "r att",
      "s and",
      "s en",
      "s of",
      "s our",
      "s ation",
      "s ca",
      "s ang",
      "s cro",
      "s nat",
      "t ou",
      "t as",
      "t se",
      "t ly",
      "t all",
      "t ent",
      "t ra",
      "t ribut",
      "t reading",
      "t ones",
      "u ld",
      "u gh",
      "u mp",
      "v isit",
      "w ar",
      "w ag",
      "w ine",
      "w ig",
      "w retched",
      "y s",
      "y ear",
      "y ears",
      "y sic",
      "z y",
      "z ing",
      "’ —",
      "“ ’",
      "he art",
      "he av",
      "in ing",
      "in tell",
      "in vent",
      "in ently",
      "ou red",
      "an ing",
      "an no",
      "it ated",
      "it ies",
      "er or",
      "er able",
      "at om",
      "re f",
      "re w",
      "re turned",
      "re fer",
      "re search",
      "re covered",
      "re gister",
      "ing s",
      "to e",
      "th ro",
      "th ous",
      "th ump",
      "th rew",
      "ed u",
      "en ny",
      "as se",
      "as ha",
      "or ter",
      "or ig",
      "or din",
      "or nam",
      "ll ent",
      "ce p",
      "ce llent",
      "id es",
      "id ent",
      "is es",
      "is ion",
      "is able",
      "ar r",
      "ar ily",
      "le aning",
      "se ll",
      "li ving",
      "li ability",
      "li mited",
      "sa fe",
      "sa lt",
      "sa ult",
      "sa ges",
      "she d",
      "she lves",
      "be ar",
      "be came",
      "me ly",
      "me mor",
      "me ek",
      "me tho",
      "st ing",
      "st ro",
      "st ir",
      "st am",
      "st ep",
      "st ru",
      "st retched",
      "ch ain",
      "ch ief",
      "was ting",
      "ot ic",
      "all _",
      "ro lled",
      "ro ots",
      "ent y",
      "ent ed",
      "ent ang",
      "ent ire",
      "so ever",
      "so mer",
      "ri a",
      "ri er",
      "ri ct",
      "al arm",
      "ter n",
      "for get",
      "ab ly",
      "ab ide",
      "ab sur",
      "tle s",
      "The se",
      "sh ion",
      "sh are",
      "sh ill",
      "sh ared",
      "sh orter",
      "ne ither",
      "ne igh",
      "not e",
      "ag o",
      "ag ine",
      "do main",
      "ti c",
      "ti ers",
      "co at",
      "co sts",
      "co ax",
      "this tle",
      "now here",
      "fe ather",
      "own s",
      "if ies",
      "if ull",
      "ss ion",
      "im ent",
      "pe bble",
      "ound s",
      "mo der",
      "mo dif",
      "mu s",
      "little _",
      "ill a",
      "su n",
      "su gar",
      "su mmer",
      "ra ven",
      "ra il",
      "ra ving",
      "ra ised",
      "ra pid",
      "ect ual",
      "de pends",
      "de stro",
      "un folded",
      "un happy",
      "un pleasant",
      "un rolled",
      "whe never",
      "what ever",
      "what soever",
      "we t",
      "we ak",
      "know s",
      "know ing",
      "per iment",
      "ation al",
      "ca used",
      "ca uld",
      "con clu",
      "con cept",
      "con clusion",
      "off er",
      "qu eror",
      "by e",
      "ex ist",
      "ex pre",
      "ex tre",
      "ex cellent",
      "ex periment",
      "ind ic",
      "your s",
      "pl ates",
      "pl oy",
      "pl enty",
      "thought s",
      "ph antly",
      "ph ysic",
      "et ary",
      "lo cks",
      "bit ion",
      "gr ant",
      "ist ed",
      "ist ling",
      "ist ribut",
      "who m",
      "who se",
      "fu rious",
      "ple te",
      "bo ards",
      "vo id",
      "Mo st",
      "ling ing",
      "ure d",
      "use ful",
      "ac cor",
      "la p",
      "la id",
      "la ug",
      "la bel",
      "la ugh",
      "read able",
      "ive ly",
      "pi cking",
      "cour tiers",
      "pro ve",
      "pro ves",
      "pro ved",
      "pro pri",
      "pro ceed",
      "tur tles",
      "com fort",
      "com plain",
      "com fits",
      "com plete",
      "ance s",
      "fore head",
      "cu cu",
      "cu shion",
      "arch bish",
      "pt ion",
      "long ed",
      "put e",
      "man ner",
      "und o",
      "und ers",
      "rep ort",
      "ence s",
      "after wards",
      "cat ching",
      "ang u",
      "ang er",
      "ms on",
      "pa ge",
      "pa use",
      "ru st",
      "ru de",
      "ru bbing",
      "last ed",
      "dist ant",
      "come s",
      "two _",
      "el s",
      "door s",
      "tell s",
      "tell ing",
      "under tone",
      "under neat",
      "pr of",
      "pr oud",
      "spe cif",
      "Do es",
      "tr ans",
      "tain s",
      "CH OR",
      "ap ples",
      "pre vent",
      "electronic ally",
      "ear ls",
      "ear nest",
      "old er",
      "remark able",
      "wonder ful",
      "has n",
      "cl am",
      "den y",
      "den ied",
      "soon er",
      "ble w",
      "dis appeared",
      "dis hes",
      "dis pute",
      "tre mbled",
      "new s",
      "where ver",
      "sm ile",
      "clo sed",
      "fan ci",
      "let s",
      "most ly",
      "act ive",
      "ci a",
      "fee ble",
      "exe mpt",
      "play ing",
      "In tern",
      "cro que",
      "spo on",
      "creat ed",
      "wat ched",
      "execut ions",
      "TH AT",
      "lear ning",
      "appe aring",
      "lie u",
      "place s",
      "small est",
      "** ***",
      "II I",
      "ring lets",
      "tri um",
      "lef thand",
      "pers isted",
      "Lit tle",
      "cur led",
      "cur tse",
      "fl at",
      "want s",
      "cho se",
      "cho ice",
      "foot step",
      "pleas ure",
      "IN C",
      "IN K",
      "LI AB",
      "LI CEN",
      "bus y",
      "sing ing",
      "sing ers",
      "rest ing",
      "rest rict",
      "conf ir",
      "book s",
      "direct ed",
      "fall ing",
      "name s",
      "ster y",
      "hurried ly",
      "An y",
      "bb ed",
      "bir d",
      "di pped",
      "gener ations",
      "mind ing",
      "miss ed",
      "chang ing",
      "chang es",
      "shar ing",
      "interrup ting",
      "Don ations",
      "matter s",
      "snee ze",
      "sister s",
      "rece ive",
      "char ges",
      "shout ing",
      "convers ations",
      "learn t",
      "reason able",
      "bright ened",
      "fur row",
      "stoo p",
      "vi ew",
      "wo man",
      "adv isable",
      "sig ned",
      "person al",
      "Ad vice",
      "au thor",
      "br own",
      "bro ke",
      "care s",
      "des k",
      "des per",
      "kind ly",
      "rea ching",
      "order ing",
      "copi ed",
      "gold fish",
      "lob ster",
      "prot ect",
      "feeling s",
      "sneez es",
      "recei pt",
      "consider able",
      "dread ful",
      "mer ely",
      "nice ly",
      "prom inently",
      "yal ty",
      "int ment",
      "secon dly",
      "William _",
      "viol ent",
      "doubt ful",
      "doubt fully",
      "Ex cept",
      "Ex plain",
      "Re ally",
      "_what _",
      "cri be",
      "cri mson",
      "em ploy",
      "scre am",
      "tu mbling",
      "ug ly",
      "ug lif",
      "ret s",
      "remain ing",
      "show er",
      "show ing",
      "shut ting",
      "delight ed",
      "delight ful",
      "temper ed",
      "flamingo es",
      "TI ON",
      "TI ES",
      "av ail",
      "fi x",
      "fi les",
      "link ed",
      "rid dles",
      "tru th",
      "anim al",
      "beat ing",
      "coll ected",
      "love ly",
      "present s",
      "format s",
      "swim ming",
      "AD VENT",
      "Con queror",
      "Every thing",
      "FU L",
      "FU LL",
      "My stery",
      "NO T",
      "cle ver",
      "cup boards",
      "cry ing",
      "clear ly",
      "din ner",
      "fri ends",
      "mi xed",
      "mon th",
      "mutter ed",
      "oc cas",
      "pur ring",
      "pur pose",
      "sque e",
      "sque aking",
      "umb ria",
      "wand ered",
      "wand ering",
      "inv ited",
      "inv itation",
      "thor oughly",
      "throw ing",
      "leg al",
      "leg ged",
      "lif ication",
      "addre ssed",
      "start ed",
      "start led",
      "neat ly",
      "sul kily",
      "proper ty",
      "produ ced",
      "obtain ing",
      "nibb led",
      "sorrow ful",
      "teacup s",
      "IV E",
      "Long itude",
      "Ro me",
      "Ro yalty",
      "VII I",
      "dam ages",
      "fit _",
      "fer rets",
      "flow er",
      "flow ers",
      "gi ven",
      "gi ving",
      "pan ting",
      "var i",
      "var ious",
      "wide st",
      "wild ly",
      "yaw ning",
      "yaw ned",
      "solic it",
      "alter n",
      "tip toe",
      "concer t",
      "concer ning",
      "quarre lling",
      "accept ed",
      "comput er",
      "comput ers",
      "disclaim er",
      "smi ling",
      "smi led",
      "quick ly",
      "beaut ifull",
      "carry ing",
      "WARRAN TY",
      "WARRAN TIES",
      "AS CII",
      "DER LAND",
      "DIS TRI",
      "Ed win",
      "Lat itude",
      "Sto le",
      "Sup pose",
      "Spe ak",
      "_she _",
      "_this _",
      "_could _",
      "bran ches",
      "cal cu",
      "fron t",
      "humb ly",
      "jaw s",
      "mis erable",
      "pin ched",
      "pain ting",
      "smo king",
      "twent y",
      "uck ily",
      "regu lar",
      "relie f",
      "encour aging",
      "beast s",
      "belong s",
      "mes sages",
      "addition al",
      "decl are",
      "pos se",
      "posit ion",
      "text s",
      "exam ine",
      "accoun t",
      "prison er",
      "trot ting",
      "waist coat",
      "custo dy",
      "promot ing",
      "introdu ce",
      "AGRE E",
      "extra ordin",
      "North umbria",
      "occur red",
      "splash ing",
      "DAMAG ES",
      "contemptuous ly",
      "expense s",
      "uneas ily",
      "ALI CE",
      "BRE ACH",
      "Cr ab",
      "Cro quet",
      "DR INK",
      "De fect",
      "EBO OK",
      "Fur y",
      "Ho le",
      "IRE CT",
      "Ke ep",
      "Mer cia",
      "Mor car",
      "Near ly",
      "Pl ain",
      "Po or",
      "Par is",
      "Pri zes",
      "Part y",
      "Present ly",
      "Red istribut",
      "ST ART",
      "Ta le",
      "Ter ms",
      "Tre acle",
      "Ug lification",
      "Van illa",
      "WON DERLAND",
      "_it _",
      "_quite _",
      "_ever _",
      "_here _",
      "_never _",
      "_Un _important",
      "_best _",
      "_mine _",
      "bre ak",
      "bas ed",
      "blast s",
      "barrow ful",
      "dan cing",
      "drun k",
      "fed eral",
      "fash ion",
      "foun tains",
      "gid dy",
      "lone ly",
      "mur der",
      "mil k",
      "ograph y",
      "parch ment",
      "prep are",
      "ratt ling",
      "sen sation",
      "scro ll",
      "snat ch",
      "tas te",
      "tall er",
      "tribut ions",
      "heav y",
      "intell ectual",
      "anno y",
      "refer ences",
      "register ed",
      "thro at",
      "thous and",
      "enny worth",
      "asse mbled",
      "asha med",
      "orig in",
      "ornam ented",
      "meek ly",
      "stir ring",
      "stam ping",
      "stru ck",
      "entang led",
      "entire ly",
      "somer sault",
      "absur d",
      "neigh bour",
      "coax ing",
      "pebble s",
      "rail way",
      "rapid ly",
      "destro y",
      "cauld ron",
      "conclu ded",
      "extre mely",
      "physic al",
      "accor dance",
      "laug hed",
      "propri etary",
      "cucu mber",
      "archbish op",
      "underneat h",
      "specif ied",
      "CHOR US",
      "earnest ly",
      "fanci ed",
      "trium phantly",
      "footstep s",
      "LICEN SE",
      "restrict ions",
      "author ity",
      "employ e",
      "avail able",
      "ADVENT URES",
      "occas ion",
      "beautifull y",
      "DISTRI BUT",
      "extraordin ary",
      "! )",
      "\" ),",
      "' ,",
      "( \"",
      "( $",
      ") (",
      ") —",
      ", \"",
      ". \"",
      ". ,",
      ". ]",
      ". —“",
      "/ /",
      "0 9",
      "1 2",
      "1 8",
      "1 9",
      "2 2",
      "2 00",
      "3 0",
      "4 1",
      "4 11",
      "5 0",
      "5 9",
      "5 01",
      "6 0",
      "6 4",
      "6 22",
      "8 7",
      "8 01",
      "8 09",
      "8 411",
      "9 1",
      ": //",
      "; —",
      "? )",
      "A V",
      "A b",
      "A m",
      "A u",
      "A he",
      "A the",
      "A llow",
      "A ust",
      "A SE",
      "A TION",
      "B i",
      "B r",
      "B es",
      "B ir",
      "B et",
      "B ack",
      "B oot",
      "B ring",
      "B IT",
      "B eg",
      "B ILITY",
      "C R",
      "C l",
      "C u",
      "C er",
      "C reat",
      "C ity",
      "C LA",
      "D a",
      "D i",
      "D er",
      "D es",
      "D ri",
      "D ist",
      "D ate",
      "D ear",
      "D rink",
      "D ON",
      "D ED",
      "D ENT",
      "D ING",
      "D IRECT",
      "E G",
      "E V",
      "E l",
      "E s",
      "E ven",
      "E EN",
      "E IN",
      "E ither",
      "E AT",
      "E mail",
      "E ART",
      "E ach",
      "F en",
      "F ain",
      "F if",
      "F our",
      "F et",
      "F rom",
      "F ort",
      "F IT",
      "F OU",
      "F ull",
      "F rog",
      "F rance",
      "G E",
      "G H",
      "G e",
      "G ri",
      "G ra",
      "G ood",
      "G ame",
      "G EN",
      "G IVE",
      "H j",
      "H m",
      "H and",
      "H as",
      "H is",
      "H ad",
      "H im",
      "H ard",
      "H art",
      "H alf",
      "H AV",
      "H EART",
      "I F",
      "I R",
      "I ll",
      "I nd",
      "I TH",
      "I di",
      "I ON",
      "I ES",
      "I UM",
      "I BILITY",
      "I DENT",
      "I GH",
      "J an",
      "J ack",
      "K IND",
      "K ING",
      "L U",
      "L e",
      "L on",
      "L ook",
      "L ac",
      "L ake",
      "L au",
      "L angu",
      "L uckily",
      "M ag",
      "M any",
      "M ER",
      "M ine",
      "M ul",
      "M AR",
      "M ich",
      "M ED",
      "M ENT",
      "M AL",
      "M ILL",
      "N D",
      "N u",
      "N ay",
      "N ER",
      "N ile",
      "N onsense",
      "N ES",
      "N ew",
      "N DA",
      "N DER",
      "N EG",
      "N IUM",
      "O S",
      "O W",
      "O c",
      "O r",
      "O ù",
      "O ur",
      "O TH",
      "P T",
      "P u",
      "P in",
      "P LI",
      "P AR",
      "P LA",
      "P RES",
      "P LE",
      "P OSE",
      "P ennyworth",
      "P OS",
      "R u",
      "R un",
      "R ele",
      "R even",
      "R AP",
      "R AB",
      "R IGH",
      "R POSE",
      "S U",
      "S i",
      "S w",
      "S it",
      "S er",
      "S ing",
      "S ent",
      "S al",
      "S ti",
      "S ha",
      "S ect",
      "S ame",
      "S tre",
      "S till",
      "S ea",
      "S top",
      "S OU",
      "S END",
      "S TRI",
      "S ounds",
      "S IBILITY",
      "T it",
      "T en",
      "T ut",
      "T ri",
      "T al",
      "T oo",
      "T ill",
      "T went",
      "T ho",
      "T able",
      "T AB",
      "U SE",
      "U AL",
      "U NDER",
      "V ol",
      "V isit",
      "W a",
      "W as",
      "W id",
      "W OR",
      "W ILL",
      "W ITH",
      "Z e",
      "_ h",
      "_ at",
      "_ and",
      "_ Alice",
      "_ her",
      "_ with",
      "_ no",
      "_ they",
      "_ his",
      "_ beg",
      "_ our",
      "_ some",
      "_ then",
      "_ don",
      "_ It",
      "_ there",
      "_ Turtle",
      "_ began",
      "_ their",
      "_ more",
      "_ him",
      "_ What",
      "_ How",
      "_ She",
      "_ before",
      "_ We",
      "_ pre",
      "_ less",
      "_ took",
      "_ yet",
      "_ sit",
      "_ red",
      "_ something",
      "_ through",
      "_ these",
      "_ please",
      "_ speak",
      "_ myself",
      "_ All",
      "_ outside",
      "_ somebody",
      "_ Are",
      "_ Sto",
      "_ Tis",
      "_ poison",
      "_ somewhere",
      "_ Everybody",
      "_ Twinkle",
      "_ all_",
      "_ little_",
      "_ plenty",
      "_ proves",
      "_ two_",
      "_ curtse",
      "_ fit_",
      "a ld",
      "a pe",
      "a che",
      "a use",
      "a fore",
      "a el",
      "a zing",
      "a mus",
      "a void",
      "b in",
      "b an",
      "b ar",
      "b all",
      "b ent",
      "b al",
      "b one",
      "b ag",
      "b ill",
      "b ra",
      "b other",
      "b ree",
      "b ough",
      "b aw",
      "b lad",
      "b ones",
      "b aked",
      "c li",
      "c ow",
      "c her",
      "c ent",
      "c un",
      "c ree",
      "c ure",
      "c ious",
      "c ently",
      "c red",
      "c raw",
      "c reas",
      "c rawling",
      "c ational",
      "c linging",
      "d _",
      "d r",
      "d at",
      "d ain",
      "d un",
      "d ried",
      "d ive",
      "d ded",
      "d ates",
      "d ig",
      "d ile",
      "d dle",
      "d au",
      "d ged",
      "d itions",
      "d ging",
      "d rown",
      "e h",
      "e th",
      "e ed",
      "e ld",
      "e pe",
      "e am",
      "e ment",
      "e ling",
      "e ked",
      "e vid",
      "e mail",
      "f at",
      "f th",
      "f id",
      "f is",
      "f le",
      "f ry",
      "f ac",
      "f ive",
      "f ool",
      "f fee",
      "f ring",
      "f lying",
      "f ail",
      "f ading",
      "f linging",
      "g g",
      "g n",
      "g th",
      "g and",
      "g her",
      "g all",
      "g ay",
      "g ain",
      "g ant",
      "g lar",
      "g led",
      "g ather",
      "g ged",
      "g ross",
      "g azing",
      "h t",
      "h y",
      "h ing",
      "h or",
      "h id",
      "h one",
      "h ide",
      "h ood",
      "h ig",
      "h ush",
      "i p",
      "i li",
      "i ver",
      "i ct",
      "i fe",
      "i ling",
      "i lt",
      "i form",
      "i zed",
      "i od",
      "i otic",
      "j our",
      "j ell",
      "j ourn",
      "k er",
      "k nu",
      "l in",
      "l ou",
      "l en",
      "l ot",
      "l ve",
      "l ation",
      "l am",
      "l ous",
      "l ark",
      "l ence",
      "l ated",
      "l ull",
      "l eng",
      "l angu",
      "l uckily",
      "m and",
      "m as",
      "m st",
      "m ly",
      "m ot",
      "m all",
      "m ag",
      "m ation",
      "m pl",
      "m only",
      "m ense",
      "m ily",
      "m mar",
      "n ly",
      "n ast",
      "n amed",
      "o be",
      "o thing",
      "o ption",
      "o intment",
      "p ow",
      "p her",
      "p po",
      "p ink",
      "p our",
      "p ation",
      "p pl",
      "p ant",
      "p read",
      "p ace",
      "p ron",
      "p ine",
      "p pers",
      "p ati",
      "p liance",
      "p ages",
      "p oured",
      "p ounds",
      "r h",
      "r m",
      "r or",
      "r us",
      "r ation",
      "r ist",
      "r ant",
      "r ise",
      "r ors",
      "r ising",
      "r oughly",
      "r itated",
      "r ises",
      "r rh",
      "s y",
      "s on",
      "s co",
      "s ue",
      "s ink",
      "s we",
      "s its",
      "s end",
      "s ence",
      "s cr",
      "s ses",
      "s light",
      "s cra",
      "s cribe",
      "t _",
      "t it",
      "t on",
      "t id",
      "t ut",
      "t un",
      "t ink",
      "t work",
      "t ide",
      "t ure",
      "t art",
      "t xt",
      "t ons",
      "t ps",
      "t ching",
      "u ct",
      "u ally",
      "u ary",
      "u ster",
      "u ced",
      "u mbled",
      "v y",
      "v as",
      "v ir",
      "v ag",
      "v our",
      "v ive",
      "v ine",
      "v ious",
      "v ul",
      "v ote",
      "w ri",
      "w ra",
      "w ard",
      "w inter",
      "w ider",
      "w ings",
      "w ides",
      "w ife",
      "x im",
      "x teenth",
      "y e",
      "y ly",
      "y es",
      "y ard",
      "y el",
      "y ards",
      "y ell",
      "y mous",
      "z ag",
      "z ig",
      "z ily",
      "z ip",
      "— (",
      "— ]",
      "‘ ’",
      "’ ?”",
      "” )",
      "” ,",
      "” ;",
      "” —",
      "he st",
      "he ap",
      "he arts",
      "he els",
      "the less",
      "in y",
      "in ed",
      "in so",
      "in ion",
      "in qu",
      "in ju",
      "in ac",
      "in cl",
      "in side",
      "in cess",
      "in quire",
      "in wards",
      "in sult",
      "in complete",
      "in creas",
      "in fring",
      "ou ched",
      "an ter",
      "an ca",
      "an ci",
      "an cial",
      "an ized",
      "it ic",
      "it able",
      "er _",
      "er ved",
      "er fully",
      "er rors",
      "at h",
      "at ing",
      "at or",
      "at te",
      "at ta",
      "at hi",
      "at ching",
      "on y",
      "on ds",
      "on ions",
      "re ed",
      "re sh",
      "re ti",
      "re co",
      "re ds",
      "re quest",
      "re turning",
      "re medi",
      "re distributing",
      "re distribution",
      "re aring",
      "re distribute",
      "re eds",
      "re move",
      "re sult",
      "re sour",
      "re minding",
      "re cently",
      "ing le",
      "ing ly",
      "to ri",
      "to ss",
      "to ber",
      "to ast",
      "to day",
      "to ps",
      "to mor",
      "to wards",
      "to ys",
      "to ffee",
      "to rm",
      "th in",
      "th ur",
      "th ir",
      "th day",
      "th ru",
      "th under",
      "th ick",
      "th unders",
      "ed ition",
      "and y",
      "and um",
      "en ing",
      "en or",
      "en for",
      "en did",
      "en sur",
      "en jo",
      "en ced",
      "en gra",
      "en sed",
      "en courage",
      "as is",
      "as es",
      "as ide",
      "as ure",
      "as ped",
      "or ting",
      "or ant",
      "ll _",
      "ll s",
      "ll ar",
      "ce ase",
      "ce ful",
      "ce pan",
      "ce ability",
      "ce iling",
      "id s",
      "id ity",
      "id iotic",
      "of read",
      "of ess",
      "is si",
      "is ions",
      "ar ly",
      "ar ri",
      "ar med",
      "ar ru",
      "ar ise",
      "ar gue",
      "ar thru",
      "le y",
      "le ad",
      "le st",
      "le ant",
      "le ap",
      "le ading",
      "se ld",
      "se ven",
      "se ated",
      "se cut",
      "se cre",
      "se cure",
      "se aside",
      "li a",
      "li p",
      "li est",
      "li ps",
      "li kes",
      "li br",
      "li cking",
      "li mbs",
      "li gently",
      "sa ve",
      "sa ves",
      "ow ed",
      "she ep",
      "she pher",
      "you _",
      "be e",
      "be lo",
      "be lt",
      "be ak",
      "be coming",
      "be lled",
      "be lls",
      "me at",
      "me al",
      "me tic",
      "me asure",
      "ad s",
      "ad es",
      "ad ding",
      "ad ditions",
      "ad ict",
      "ad journ",
      "ad option",
      "st ar",
      "st al",
      "st if",
      "st ard",
      "st ation",
      "st af",
      "st ren",
      "st ring",
      "st acle",
      "st ret",
      "st ead",
      "st eam",
      "ch oo",
      "ch ry",
      "ch ine",
      "ch air",
      "ch op",
      "ch oose",
      "ch uck",
      "ch anced",
      "ch atte",
      "was te",
      "ver n",
      "ver t",
      "ld ing",
      "ld ly",
      "gh ing",
      "gh thand",
      "es pe",
      "ro ck",
      "ro pe",
      "ro ast",
      "ro ared",
      "ro cket",
      "ro ach",
      "that ched",
      "ent rance",
      "so b",
      "so lid",
      "so bbed",
      "so othing",
      "wh istling",
      "!” )",
      "ri ch",
      "ri per",
      "ri bly",
      "ri otic",
      "ri ppl",
      "ri ghthand",
      "wit s",
      "out dated",
      "ve _",
      "ve get",
      "ve lve",
      "al ed",
      "al and",
      "al idity",
      "al armed",
      "ght er",
      "oo mily",
      "ur ry",
      "ur ried",
      "ur pation",
      "ion ately",
      "ter ed",
      "ter mine",
      "ter bur",
      "ter rier",
      "ter ror",
      "ter ribly",
      "for d",
      "for k",
      "for med",
      "for wards",
      "ab sence",
      "ct ion",
      "ge tic",
      "The ir",
      "sh if",
      "sh ark",
      "sh ade",
      "sh ake",
      "sh ining",
      "sh ape",
      "sh iver",
      "sh yly",
      "sh iny",
      "sh ingle",
      "up id",
      "up right",
      "up stairs",
      "up dated",
      "one self",
      "ne l",
      "ne cess",
      "ne eds",
      "ne twork",
      "not ifies",
      ".” )",
      "ir t",
      "ir ited",
      "ir ons",
      "ir ritated",
      "but tons",
      "ag ent",
      "ag gled",
      "ag ony",
      "ag reed",
      "ck ling",
      "ck led",
      "ck les",
      "ck rrh",
      "do ze",
      "do zing",
      "do dged",
      "ti e",
      "ti er",
      "ti ed",
      "ti ght",
      "ti pped",
      "co ld",
      "co ast",
      "co des",
      "co dile",
      "?” ,",
      "fe ared",
      "wor m",
      "wor ry",
      "wor ried",
      "if ication",
      "no ises",
      "no dded",
      "im po",
      "im per",
      "im ming",
      "im itated",
      "im agine",
      "im mense",
      "pe at",
      "pe are",
      "pe gs",
      "pe ering",
      "mo on",
      "mo mile",
      "mu ddle",
      "mu lous",
      "his s",
      "his tori",
      "ra pped",
      "ra ising",
      "ra lia",
      "de ta",
      "de let",
      "de mn",
      "de lay",
      "de epe",
      "de mand",
      "de ath",
      "de termine",
      "po p",
      "po pe",
      "po ky",
      "po sal",
      "po intment",
      "po ker",
      "te ap",
      "te eth",
      "te ases",
      "un g",
      "un lo",
      "un just",
      "un able",
      "un will",
      "un cor",
      "un link",
      "un protected",
      "un solic",
      "un civil",
      "un twist",
      "un usually",
      "un iform",
      "un enfor",
      "whe els",
      "see ing",
      "beg ged",
      "down lo",
      "down wards",
      "down ward",
      "ink ing",
      "ink stand",
      "wer en",
      "we b",
      "we pt",
      "we arily",
      "our ite",
      "our selves",
      "know n",
      "per ing",
      "per man",
      "per text",
      "per iod",
      "per formed",
      "us urpation",
      "ca ckled",
      "ca momile",
      "ca pering",
      "go als",
      "go vern",
      "am onds",
      "che ap",
      "che ated",
      "che ek",
      "che erfully",
      "Pro du",
      "con tr",
      "con quest",
      "con sent",
      "con du",
      "con ger",
      "con sult",
      "con tent",
      "con tributions",
      "con vert",
      "con demn",
      "fo lding",
      "off ice",
      "off ers",
      "some one",
      "some how",
      "ex tr",
      "ex act",
      "ex por",
      "ex clusion",
      "ex clam",
      "ind irect",
      "ic s",
      "ic ally",
      "ic ul",
      "pl ac",
      "pl ause",
      "ph asis",
      "can vas",
      "Queen s",
      "et s",
      "et y",
      "lo se",
      "lo ck",
      "lo ving",
      "lo sing",
      "lo cked",
      "lo cations",
      "lo dging",
      "right ly",
      "get ed",
      "bit ter",
      "don ation",
      "don ors",
      "gr ate",
      "gr oup",
      "gr umbled",
      "ist ance",
      "whi les",
      "fu mbled",
      "ta les",
      "ple ss",
      "ju g",
      "si e",
      "si zes",
      "bo on",
      "bo re",
      "bo ard",
      "bo ldly",
      "King s",
      "pp i",
      "vo king",
      "too d",
      "ma id",
      "ma ps",
      "ma chin",
      "ma xim",
      "ma chine",
      "ide st",
      "how led",
      "Cat ch",
      "af fect",
      "af fair",
      "af ford",
      "der ed",
      "der ive",
      "ure dly",
      "ish ing",
      "ish ly",
      "ac ter",
      "ac cus",
      "ac custo",
      "ac cep",
      "la ught",
      "la zy",
      "la zily",
      "la belled",
      "read ily",
      "end ed",
      "their s",
      "pi geon",
      "pi lation",
      "ho llow",
      "ho lid",
      "ho ped",
      "pro ble",
      "pro hi",
      "pro ofread",
      "pro secut",
      "pro posal",
      "pro voking",
      "tur key",
      "com mer",
      "com pressed",
      "com mon",
      "com fortable",
      "com mitted",
      "com mot",
      "com pilation",
      "never theless",
      "just ice",
      "fore paws",
      "ven th",
      "cu mst",
      "cu stard",
      "min eral",
      "py right",
      "over head",
      "over come",
      "pt y",
      "hed ges",
      "back s",
      "man s",
      "man ager",
      "man ners",
      "man aging",
      "rep resent",
      "cat tle",
      "cat erpillar",
      "ey ed",
      "ey el",
      "low er",
      "low ing",
      "ang ed",
      "hand some",
      "hand writing",
      "pa used",
      "pa pers",
      "ru den",
      "ru mbling",
      "ru shed",
      "ru bbed",
      "We st",
      "il s",
      "There fore",
      "Th us",
      "Th ough",
      "Th inking",
      "ded uct",
      "large st",
      "So on",
      "So les",
      "ele gant",
      "ele venth",
      "door way",
      "pr int",
      "spe ed",
      "spe ll",
      "set tle",
      "set ting",
      "gl anced",
      "gl oomily",
      "jur or",
      "tr ay",
      "tain ing",
      "tain ly",
      "CH AN",
      "ap ple",
      "ap pointment",
      "ap plause",
      "grow ling",
      "grow led",
      "grow ls",
      "He arthru",
      "He ads",
      "mb le",
      "may n",
      "may be",
      "pre ss",
      "pre ted",
      "pre ssing",
      "pre ser",
      "pre texts",
      "pre vious",
      "than k",
      "than ked",
      "old est",
      "wa it",
      "ass ics",
      "ass istance",
      "wonder ed",
      "has te",
      "ated _",
      "mean while",
      "cl asped",
      "cut ting",
      "den ies",
      "den ial",
      "den ying",
      "less en",
      "ble eds",
      "dis k",
      "dis may",
      "dis agree",
      "dis gu",
      "dis contin",
      "dis cover",
      "dis covered",
      "dis obe",
      "dis appointment",
      "find s",
      "gard _",
      "op pos",
      "op inion",
      "ran ties",
      "side _",
      "tre mulous",
      "tre mble",
      "Co llar",
      "Co pyright",
      "Co ils",
      "gu ard",
      "gu ilt",
      "where upon",
      "garden _",
      "imp lied",
      "imp ati",
      "clo ser",
      "fan ning",
      "fan ned",
      "wal rus",
      "child hood",
      "act ually",
      "ci ally",
      "call ing",
      "dre ssed",
      "pu sh",
      "pu ff",
      "pu lled",
      "pu lling",
      "part ner",
      "part ners",
      "sent enced",
      "sup ple",
      "ul ties",
      "fee bly",
      "play ed",
      "In vol",
      "cro codile",
      "eat s",
      "eat ing",
      "eat en",
      "house s",
      "house maid",
      "kes peare",
      "spo ken",
      "hear th",
      "inter preted",
      "curious er",
      "remember ing",
      "EN TI",
      "EN NIUM",
      "fin ancial",
      "hi ppo",
      "sto le",
      "sto red",
      "sto cking",
      "sto pping",
      "wat ers",
      "tea ching",
      "execut e",
      "execut es",
      "St and",
      "St uff",
      "St upid",
      "TH ING",
      "TH OSE",
      "Un less",
      "dden ly",
      "mor sel",
      "red uced",
      "thr one",
      "thr own",
      "lic ation",
      "lic ensed",
      "court _",
      "appe ars",
      "appe aled",
      "ob long",
      "ob sole",
      "ob stacle",
      "ren t",
      "ren amed",
      "Who ever",
      "place ment",
      "cou ple",
      "cou ples",
      "sur vive",
      "tri es",
      "tri cks",
      "tri ckling",
      "inde mn",
      "ener getic",
      "pers ons",
      "clu bs",
      "Ar ith",
      "Ar thur",
      "Din n",
      "Her ald",
      "OR AN",
      "cur ly",
      "cur ate",
      "cur tain",
      "cur ving",
      "cur ls",
      "cur rant",
      "cur rent",
      "du ed",
      "du ck",
      "fl own",
      "fl utter",
      "fl ashed",
      "fl uster",
      "fl urry",
      "fl ung",
      "jo ys",
      "jo gged",
      "list ened",
      "tin ent",
      "cho ke",
      "cho king",
      "foot men",
      "qui ver",
      "pleas ing",
      "pleas es",
      "pleas anter",
      "LI GEN",
      "RE AD",
      "RE FU",
      "RE MED",
      "RE PLA",
      "far ther",
      "hel pless",
      "stand ing",
      "comp any",
      "happen ing",
      "close ly",
      "puzz le",
      "answer s",
      "Soup _",
      "game s",
      "rup t",
      "sl ug",
      "inclu de",
      "inclu des",
      "reas ons",
      "ster nly",
      "whis tle",
      "whis pers",
      "fort y",
      "fort ably",
      "shri mp",
      "shri eked",
      "queer est",
      "help ed",
      "An tip",
      "bir thday",
      "cla pping",
      "di e",
      "di ed",
      "di bly",
      "di ligently",
      "di amonds",
      "glo be",
      "mind ed",
      "ask ance",
      "vers ion",
      "sho ck",
      "butter ed",
      "butter cup",
      "butter fly",
      "access ed",
      "access ible",
      "hurry ing",
      "interrup t",
      "cr ab",
      "cr ashed",
      "cr ouched",
      "cr itic",
      "car rier",
      "dou ble",
      "main taining",
      "pass ing",
      "org anized",
      "char ities",
      "char itable",
      "char acter",
      "soldi er",
      "sub mitted",
      "sub scribe",
      "sub dued",
      "grin s",
      "grin ning",
      "box ed",
      "learn ed",
      "trial s",
      "listen ers",
      "AR K",
      "cre ation",
      "cre pt",
      "cor por",
      "cor ners",
      "cor rupt",
      "fur y",
      "fright en",
      "gra zed",
      "gra vy",
      "gra ceful",
      "stoo l",
      "wo re",
      "wo ke",
      "sever ity",
      "belie ved",
      "adv ice",
      "adv ise",
      "twink led",
      "dream y",
      "dream ing",
      "dream ed",
      "coun ting",
      "coun tries",
      "doub ling",
      "doub led",
      "opportun ities",
      "Ad a",
      "Ad dition",
      "Would n",
      "au dibly",
      "aw fully",
      "br ain",
      "br ass",
      "br istling",
      "bow ing",
      "bro ther",
      "des cri",
      "des pair",
      "des erved",
      "four th",
      "sp ot",
      "sp ite",
      "sp reading",
      "sp rawling",
      "sp ades",
      "sp irited",
      "ust ration",
      "wood en",
      "ket tle",
      "notic ing",
      "prov ision",
      "prov isions",
      "prot ection",
      "moral s",
      "explain ed",
      "sneez ed",
      "recei ving",
      "IT ION",
      "_your s_",
      "bat hing",
      "draw ing",
      "late ly",
      "mer rily",
[...]
